{"</s>": 0, "<unk>": 1, ".": 2, ",": 3, "\u2581the": 4, "\u2581of": 5, "s": 6, "\u2581to": 7, "\u2581och": 8, "\u2581and": 9, "\u2581att": 10, "\u2581in": 11, "\u2581i": 12, "\u2581av": 13, "\u2581f\u00f6r": 14, "\u2581a": 15, "'": 16, "\u2581som": 17, "\u2581\u00e4r": 18, "\u2581I": 19, "\u2581-": 20, "?": 21, "\u2581en": 22, "-": 23, "\u2581det": 24, "\u2581till": 25, "\u2581for": 26, "\u2581p\u00e5": 27, "\u2581is": 28, "\u2581(": 29, "\u2581med": 30, "\u2581that": 31, ":": 32, "\u2581you": 33, "t": 34, "\u2581den": 35, ")": 36, "\u2581de": 37, "\u2581om": 38, "\u2581inte": 39, "\u2581be": 40, "\u2581on": 41, "\u2581": 42, "en": 43, "\u2581with": 44, "\u2581har": 45, "\u2581The": 46, "\u2581it": 47, "\u2581\"": 48, "a": 49, "\u2581du": 50, "\u2581ett": 51, "\u2581are": 52, "\u2581by": 53, "\u2581as": 54, "\u2581Jag": 55, "\u2581this": 56, "\u2581or": 57, "\u2581not": 58, "\u2581jag": 59, "\u2581eller": 60, "\u2581kan": 61, "!": 62, "er": 63, "\u2581have": 64, "\u2581Det": 65, "\u2581from": 66, "\u2581fr\u00e5n": 67, "...": 68, "\u2581at": 69, "\u2581was": 70, "\u2581vi": 71, "\u2581we": 72, "\u2581an": 73, "\u2581ska": 74, "d": 75, "\u2581all": 76, "\u2581which": 77, "/": 78, "\u2581will": 79, "\u2581your": 80, "\u2581can": 81, "e": 82, ";": 83, "n": 84, "\u2581under": 85, "m": 86, "\u2581s\u00e5": 87, "\u2581var": 88, "ing": 89, "re": 90, "\u2581has": 91, "\u2581You": 92, "\u2581h\u00e4r": 93, "\u2581It": 94, "\u2581kommer": 95, "\u2581European": 96, "\u2581shall": 97, "na": 98, "ar": 99, "\u2581me": 100, "r": 101, "\u2581man": 102, "\u2581In": 103, "\u2581EU": 104, "\u2581dig": 105, "et": 106, "\u2581do": 107, "\u2581Commission": 108, "\u2581skall": 109, "\u2581out": 110, "\u2581detta": 111, "\u25811": 112, "\u2581sig": 113, "\u2581A": 114, "\u2581they": 115, "\u2581vara": 116, "\u2581Vi": 117, "\u2581should": 118, "\u2581their": 119, "\u2581alla": 120, "\u2581No": 121, "\u2581men": 122, "\u2581one": 123, "\u2581mig": 124, "\u2581andra": 125, "\u2581my": 126, "\u2581more": 127, "\u2581been": 128, "\u2581but": 129, "\u2581other": 130, "\u2581m\u00e5ste": 131, "\u2581he": 132, "\u2581up": 133, "\u2581This": 134, "\u2581vid": 135, "\u2581what": 136, "\u2581n\u00e4r": 137, "\u2581han": 138, "\u2581information": 139, "\u2581Du": 140, "\u2581about": 141, "\u2581also": 142, "\u2581its": 143, "\u2581Member": 144, "\u2581We": 145, ").": 146, "\u2581skulle": 147, "ed": 148, "\u2581know": 149, "\u2581De": 150, "\"": 151, "\u2581there": 152, "\u2581genom": 153, "\u2581denna": 154, "\u2581Regulation": 155, "\u2581Article": 156, "\u2581so": 157, "\u2581inom": 158, "\u2581upp": 159, "\u2581if": 160, "\u2581\u2013": 161, "\u2581vill": 162, "\u2581d\u00e4r": 163, "\u2581What": 164, "\u2581\u00f6ver": 165, "\u2581would": 166, "\u2581ocks\u00e5": 167, "\u2581just": 168, "\u2581time": 169, "\u2581ut": 170, "\u2581like": 171, "\u2581were": 172, "\u2581our": 173, "\u2581artikel": 174, "\u2581efter": 175, "\u2581Den": 176, "de": 177, "\u2581States": 178, "\u2581no": 179, "\u2581finns": 180, "S": 181, "\u25812": 182, "\u2581may": 183, "\u2581his": 184, "\u2581f\u00e5r": 185, "\u2581Om": 186, "\u2581\u00e4n": 187, "\u2581into": 188, "\u2581vad": 189, "\u2581And": 190, "\u2581who": 191, "\u2581ha": 192, "\u2581Council": 193, "\u2581dem": 194, "\u2581dessa": 195, "\u2581them": 196, "\u2581any": 197, "\u2581F\u00f6r": 198, "\u2581when": 199, "\u2581bara": 200, "\u2581than": 201, "\u2581b\u00f6r": 202, "\u2581here": 203, "\u2581oss": 204, "\u2581mer": 205, "in": 206, "\u2581mot": 207, "\u2581f\u00f6rordning": 208, "\u2581don": 209, "\u2581Vad": 210, "\u25813": 211, "ll": 212, "\u2581g\u00f6ra": 213, "\u2581him": 214, "\u2581mycket": 215, "\u2581nr": 216, "\u25815": 217, "\u2581mellan": 218, "\u2581new": 219, "\u2581right": 220, "y": 221, "\u2581these": 222, "\u2581\u00e5r": 223, "\u2581din": 224, "),": 225, "\u2581had": 226, "\u2581ni": 227, "\u2581Europeiska": 228, "\u2581kommissionen": 229, "\u2581get": 230, "\u2581hade": 231, "\u2581only": 232, "\u2581must": 233, "\u2581S": 234, "\u2581En": 235, "\u2581such": 236, "i": 237, "\u2581sin": 238, "\u2581Union": 239, "\u2581use": 240, "\u2581\u2014": 241, "\u2581us": 242, "EC": 243, "\u2581need": 244, "\u2581nu": 245, "\u2581enligt": 246, "\u2581C": 247, "\u2581f\u00e5": 248, "\u2581He": 249, "\u2581people": 250, "\u2581g\u00f6r": 251, "\u2581honom": 252, "o": 253, "\u2581L": 254, "EG": 255, "\u2581g\u00e4ller": 256, "\u258110": 257, "\u2581Men": 258, "\u25814": 259, "\u2581hur": 260, "\u2581B": 261, "\u2581where": 262, "\u2581some": 263, "\u2581system": 264, "\u2581take": 265, "\u2581\u00e4ven": 266, "\u2581between": 267, "\u2581those": 268, "ve": 269, "erna": 270, "\u2581utan": 271, "\u2581Och": 272, "\u2581[": 273, "\u2581If": 274, "\u2581work": 275, "\u2581now": 276, "\u2581vet": 277, "\u2581Han": 278, "ly": 279, "\u2581per": 280, "\u2581s": 281, "\u2581ta": 282, "\u2581want": 283, "\u2581se": 284, "\u2581make": 285, "\u2581her": 286, "\u2581min": 287, "\u2581over": 288, "\u2581first": 289, "\u2581%": 290, "or": 291, "\u2581d\u00e5": 292, "A": 293, "\u2581down": 294, "\u2581That": 295, "\u2581go": 296, "\u2581samt": 297, "\u2581er": 298, "\u2581Community": 299, "C": 300, "\u2581s\u00e4tt": 301, "\u2581way": 302, "\u2581'": 303, ".\"": 304, "\u2581very": 305, "b": 306, "\u2581two": 307, "\u2581see": 308, "\u2581think": 309, "g": 310, "\u2581could": 311, "\u2581made": 312, "\u2581allt": 313, "al": 314, "\u2581tv\u00e5": 315, "\u2581good": 316, "\u2581how": 317, "\u2581But": 318, "\u2581f\u00f6rsta": 319, "\u2581nya": 320, "\u2581well": 321, "\u2581sina": 322, "\u2581products": 323, "c": 324, "\u2581data": 325, "\u2581N\u00e4r": 326, "\u2581\u00e5tg\u00e4rder": 327, "\u2581used": 328, "\u2581Mr": 329, "\u2581Detta": 330, "\u2581For": 331, "\u2581market": 332, "\u2581years": 333, "\u2581del": 334, "es": 335, "\u2581measures": 336, "\u2581beslut": 337, "\u2581E": 338, "\u2581within": 339, "\u2581olika": 340, "\u2581back": 341, "\u2581f\u00f6ljande": 342, "\u2581n\u00e5got": 343, "\u25816": 344, "\u2581countries": 345, "an": 346, "\u2581bra": 347, "\u2581order": 348, "\u258120": 349, "\u2581enlighet": 350, "\u2581kunna": 351, "\u2581So": 352, "2": 353, "\u2581after": 354, "\u2581did": 355, "\u2581fram": 356, "\u2581she": 357, "]": 358, "\u2581Directive": 359, "\u2581before": 360, "\u2581n\u00e5gon": 361, "\u2581part": 362, "\u2581following": 363, "\u2581medlemsstaterna": 364, "\u2581God": 365, "\u2581State": 366, "\u2581They": 367, "\u2581deras": 368, "\u2581Parliament": 369, "I": 370, "\u2581hon": 371, "\u2581through": 372, "\u2581set": 373, "\u258115": 374, "\u2581got": 375, "se": 376, "\u2581m\u00e5nga": 377, "\u2581hela": 378, "\u2581year": 379, "\u2581e": 380, "\u2581bli": 381, "\u2581There": 382, "EU": 383, "\u2581st\u00f6d": 384, "\u2581D": 385, "\u2581because": 386, "ning": 387, "\u2581s\u00e4rskilt": 388, "\u258130": 389, "\u2581same": 390, "\u2581then": 391, "\u2581vilket": 392, "\u2581national": 393, "\u2581P": 394, "\u2581problem": 395, "\u2581&": 396, "\u2581fall": 397, "B": 398, "\u2581most": 399, "\u2581beh\u00f6ver": 400, "\u2581d\u00e4rf\u00f6r": 401, "\u2581even": 402, "\u2581direktiv": 403, "\u2581ge": 404, "\u2581varje": 405, "\u2581Hur": 406, "\u258112": 407, "\u2581period": 408, "\u2581day": 409, "\u2581many": 410, "\u2581being": 411, "\u25817": 412, "\u2581social": 413, "\u2581hos": 414, "\u2581number": 415, "\u2581n\u00e5gra": 416, "\u2581T": 417, "\u2581particular": 418, "\u2581said": 419, "\u2581o": 420, "\u2581support": 421, "\u2581say": 422, "\u2581going": 423, "\u2581dag": 424, "\u2581samma": 425, "\u2581r\u00e4tt": 426, "ande": 427, "\u2581punkt": 428, "\u2581.": 429, "\u2581fr\u00e5ga": 430, "\u2581r\u00e5dets": 431, "\u2581Committee": 432, "\u2581F": 433, "\u2581does": 434, "ens": 435, "\u2581How": 436, "\u2581vissa": 437, "\u25818": 438, "\u2581sitt": 439, "\u2581place": 440, "\u2581come": 441, "\u2581v\u00e5r": 442, "\u2581each": 443, "\u2581blir": 444, "\u2581form": 445, "\u2581development": 446, "\u2581accordance": 447, "\u2581help": 448, "\u2581p": 449, "\u2581own": 450, "\u2581public": 451, "\u2581\u2018": 452, "are": 453, "\u2581G": 454, "\u2581world": 455, "\u2581As": 456, "\u2581person": 457, "\u2581hans": 458, "\u2581services": 459, "\u2581All": 460, "\u2581report": 461, "ade": 462, "\u2581hand": 463, "\u2581f\u00f6retag": 464, "\u2581policy": 465, "\u2581life": 466, "\u2581tid": 467, "\u2581dess": 468, "\u2581point": 469, "\u2581am": 470, "\u2581level": 471, "\u2581K": 472, "\u2581Europe": 473, "\u2581last": 474, "\u2581much": 475, "\u2581case": 476, "\u2581financial": 477, "\u258118": 478, "arna": 479, "\u2581eftersom": 480, "\u2581g\u00e5r": 481, "\u2581annat": 482, "\u2581O": 483, "\u2581long": 484, "\u2581too": 485, "\u2581\u00e5t": 486, "k": 487, "\u2581Annex": 488, "\u2581without": 489, "\u2581risk": 490, "\u2581gonna": 491, "as": 492, "\u2581important": 493, "\u2581land": 494, "\u2581re": 495, "\u2581ger": 496, "\u2581both": 497, "\u2581\u00c4r": 498, "\u2581provided": 499, "at": 500, "\u2581sedan": 501, "\u2581Well": 502, "T": 503, "\u2581tror": 504, "\u2581v\u00e5ra": 505, "\u2581against": 506, "\u2581find": 507, "\u2581To": 508, "\u2581still": 509, "ts": 510, "\u2581g\u00e5": 511, "h": 512, "\u2581conditions": 513, "\u2581during": 514, "\u258125": 515, "\u2581M": 516, "\u2581different": 517, "\u25819": 518, "l": 519, "\u2581including": 520, "\u2581available": 521, "\u2581something": 522, "\u2581barn": 523, "\u2581means": 524, "\u2581give": 525, "\u2581s\u00e4ger": 526, "\u2581Ja": 527, "\u2581necessary": 528, "\u2581vilka": 529, "\u2581ensure": 530, "\u2581t": 531, "\u2581President": 532, "\u2581m": 533, "\u2581S\u00e5": 534, "\u2581tre": 535, "\u2581tar": 536, "\u2581regard": 537, "\u2581Europaparlament": 538, "\u2581referred": 539, "ad": 540, "\u2581v\u00e4l": 541, "\u2581produkter": 542, "F": 543, "\u2581grund": 544, "\u2581kommissionens": 545, "\u2581ekonomiska": 546, "\u2581possible": 547, "nde": 548, "\u258124": 549, "\u2581b": 550, "\u2581Denna": 551, "\u2581rules": 552, "\u2581varit": 553, "\u2581service": 554, "\u2581kom": 555, "\u2581really": 556, "\u2581uppgifter": 557, "p": 558, "\u2581utveckling": 559, "\u2581nationella": 560, "\u2581...": 561, "D": 562, "\u2581She": 563, "\u2581high": 564, "\u2581aid": 565, "f": 566, "\u2581three": 567, "\u2581transport": 568, "\u2581ingen": 569, "\u2581economic": 570, "K": 571, "\u2581Do": 572, "\u2581R": 573, "ets": 574, "\u2581certain": 575, "\u2581Yeah": 576, "\".": 577, "\u2581product": 578, "\u2581taken": 579, "\u2581ditt": 580, "\u2581fick": 581, "\u2581euro": 582, "\u2581authorities": 583, "\u2581mitt": 584, "\u2581best": 585, "\u2581V": 586, "\u2581Ni": 587, "\u2581ser": 588, "\u2581redan": 589, "\u2581r\u00e5det": 590, "\u2581P\u00e5": 591, "\u2581area": 592, "\u2581sa": 593, "\u2581therefore": 594, "\u2581Decision": 595, "\u2581anges": 596, "\u2581unionen": 597, "\u2581sj\u00e4lv": 598, "\u2581When": 599, "\u2581helt": 600, "\u2581stor": 601, "\u2581Hon": 602, "\u258119": 603, "\u2581Jesus": 604, "\u2581endast": 605, "\u2581kunde": 606, "the": 607, "\u2581gemensamma": 608, "\u2581Gud": 609, "\u2581Med": 610, "(": 611, "\u2581_": 612, "\u2581free": 613, "\u2581end": 614, "\u2581full": 615, "\u2581komma": 616, "\u2581annan": 617, "on": 618, "\u2581henne": 619, "1": 620, "\u2581common": 621, "\u2581tell": 622, "\u2581off": 623, "\u258114": 624, "\u258111": 625, "\u2581course": 626, "\u2581s\u00e4ga": 627, "th": 628, "\u2581tillbaka": 629, "\u258116": 630, "\u2581m\u00e4nniskor": 631, "\u2581H": 632, "\u2581m\u00f6jligt": 633, "G": 634, "\u2581stora": 635, "\u2581Why": 636, "\u2581basis": 637, "\u2581kanske": 638, "\u2581better": 639, "\u2581mg": 640, "man": 641, "\u2581application": 642, "E": 643, "\u2581country": 644, "to": 645, "us": 646, "\u2581little": 647, "\u2581g": 648, "\u2581given": 649, "3": 650, "\u258117": 651, "\u2581b\u00e4ttre": 652, "\u2581situation": 653, "\u2581put": 654, "\u2581human": 655, "\u2581process": 656, "\u2581budget": 657, "\u258113": 658, "\u2581account": 659, "\u2581program": 660, "\u2581II": 661, "\u2581fr\u00e5gor": 662, "\u2581icke": 663, "\u2581f\u00f6rslag": 664, "\u2581why": 665, "\u2581things": 666, "\u2581m\u00e5l": 667, "\u2581N": 668, "\u2581Varf\u00f6r": 669, "\u2581My": 670, "\u2581Treaty": 671, "\u2581avses": 672, "\u2581Oh": 673, "\u2581ny": 674, "\u2581mean": 675, "\u2581never": 676, "\u2581europeiska": 677, "\u2581bilaga": 678, "M": 679, "\u2581THE": 680, "ex": 681, "\u2581provide": 682, "\u2581flera": 683, "\u2581unionens": 684, "\u2581third": 685, "\u2581based": 686, "\u2581Finland": 687, "\u2581every": 688, "ers": 689, "\u2581Europa": 690, "\u2581Kommissionen": 691, "\u2581great": 692, "\u2581s\u00e5dana": 693, "\u2581far": 694, "N": 695, "\u2581didn": 696, "\u2581non": 697, "\u258131": 698, "\u2581let": 699, "L": 700, "\u2581protection": 701, "\u2581dina": 702, "\u2581lite": 703, "f\u00f6r": 704, "\u2581rights": 705, "\u2581Var": 706, "\u2581anv\u00e4nda": 707, "\u2581marknaden": 708, "\u2581aldrig": 709, "P": 710, "EEG": 711, "\u2581On": 712, "\u2581100": 713, "\u2581activities": 714, "\u2581another": 715, "\u258150": 716, "\u2581law": 717, "\u2581already": 718, "\u2581personer": 719, "\u2581control": 720, "\u2581g\u00e5ng": 721, "is": 722, "\u2581Man": 723, "\u2581ligger": 724, "\u2581general": 725, "\u2581alltid": 726, "\u2581look": 727, "it": 728, "\u2581energy": 729, "EEC": 730, "\u2581doing": 731, "\u2581Re": 732, "\u2581vilken": 733, "\u2581specific": 734, "\u2581hj\u00e4lp": 735, "\u2581provisions": 736, "\u2581found": 737, "\u2581medlemsstater": 738, "\u2581liv": 739, "\u2581around": 740, "\u2581Ett": 741, "\u2581innan": 742, "\u2581material": 743, "\u2581gjorde": 744, "\u2581view": 745, "\u2581home": 746, "\u2581requirements": 747, "\u2581bland": 748, "\u2581decision": 749, "\u2581Under": 750, "\u2581l\u00e4nder": 751, "\u2581water": 752, "\u2581further": 753, "\u2581change": 754, "\u2581blev": 755, "\u2581appropriate": 756, "\u258121": 757, "\u2581direkt": 758, "\u2581production": 759, "\u2581relevant": 760, "\u2581business": 761, "\u2581concerned": 762, "\u2581Tack": 763, "H": 764, "\u2581ju": 765, "\u2581while": 766, "\u2581areas": 767, "\u2581force": 768, "\u258122": 769, "\u2581proposal": 770, "x": 771, "\u2581paragraph": 772, "\u2581action": 773, "\u2581However": 774, "\u2581bort": 775, "\u2581research": 776, "\u2581million": 777, "\u2581working": 778, "\u2581together": 779, "\u2581b\u00e5de": 780, "\u2581f\u00f6re": 781, "\u2581least": 782, "\u2581programme": 783, "\u2581ytterligare": 784, "ation": 785, "\u2581international": 786, "\u2581anv\u00e4nds": 787, "\u2581anv\u00e4ndning": 788, "\u2581always": 789, "\u2581since": 790, "\u2581love": 791, "\u2581thing": 792, "\u2581adopted": 793, "\u2581future": 794, "\u2581total": 795, "ic": 796, "\u2581fortfarande": 797, "\u2581Att": 798, "\u2581Se": 799, "\u2581dock": 800, "\u2581ner": 801, "\u2581verksamhet": 802, "\u2581Where": 803, "Jag": 804, "\u2581b\u00e4sta": 805, "\u2581plan": 806, "\u2581health": 807, "\u2581children": 808, "\u2581second": 809, "\u2581days": 810, "\u2581gemenskapen": 811, "\u2581apply": 812, "\u2581again": 813, "\u2581tj\u00e4nster": 814, "\u2581/": 815, "V": 816, "\u2581subject": 817, "\u2581access": 818, "\u2581management": 819, "el": 820, "\u2581exempel": 821, "\u2581st\u00f6rre": 822, "\u2581ur": 823, "4": 824, "\u2581ber\u00f6rda": 825, "\u2581cooperation": 826, "\u2581name": 827, "ta": 828, "\u2581beaktande": 829, "\u2581anser": 830, "\u2581import": 831, "\u2581question": 832, "ion": 833, "\u2581W": 834, "\u2581vatten": 835, "\u2581respect": 836, "\u2581security": 837, "\u2581patients": 838, "\u258128": 839, "R": 840, "\u258127": 841, "\u2581miljoner": 842, "\u2581Don": 843, "\u2581mindre": 844, "\u2581tidigare": 845, "\u2581whether": 846, "ut": 847, "\u25810": 848, "\u2581gjort": 849, "\u2581able": 850, "\u2581today": 851, "\u2581tillsammans": 852, "able": 853, "\u2581legal": 854, "\u2581v\u00e4rlden": 855, "\u2581Now": 856, "het": 857, "da": 858, "\u2581start": 859, "\u2581sociala": 860, "\u2581believe": 861, "\u2581implementation": 862, "\u2581treatment": 863, "\u2581EUR": 864, "\u2581These": 865, "\u2581verkligen": 866, "\u2581igen": 867, "\u2581sure": 868, "\",": 869, "v": 870, "\u2581trade": 871, "\u2581company": 872, "\u258129": 873, "\u2581might": 874, "\u2581fact": 875, "\u258123": 876, "\u2581procedure": 877, "\u2581position": 878, "\u2581inget": 879, "\u2581until": 880, "be": 881, "\u2581personal": 882, "\u2581Har": 883, "\u2581price": 884, "\u2581fast": 885, "\u2581December": 886, "\u2581inneh\u00e5ller": 887, "\u2581Okay": 888, "\u2581quality": 889, "\u2581An": 890, "\u2581sector": 891, "\u2581special": 892, "\u2581via": 893, "\u2581un": 894, "\u2581away": 895, "\u2581n\u00e5t": 896, "\u2581At": 897, "\u2581procent": 898, "\u2581value": 899, "\u2581c": 900, "iska": 901, "\u2581Nu": 902, "\u2581New": 903, "\u2581less": 904, "\u2581arbete": 905, "\u2581group": 906, "\u2581mina": 907, "\u258126": 908, "\u2581example": 909, "\u2581using": 910, "\u2581results": 911, "\u2581open": 912, "\u2581type": 913, "\u2581done": 914, "\u2581december": 915, "\u2581l\u00e4ngre": 916, "\u2581opinion": 917, "\u2581date": 918, "\u2581visar": 919, "\u2581hj\u00e4lpa": 920, "\u2581body": 921, "\u2581night": 922, "\u2581power": 923, "\u2581cannot": 924, "\u2581avseende": 925, "\u2581Nej": 926, "W": 927, "\u2581\u2022": 928, "\u2581best\u00e4mmelser": 929, "\u2581samarbete": 930, "\u2581energi": 931, "\u2581call": 932, "\u2581industry": 933, "\u2013": 934, "\u2581h\u00f6g": 935, "\u2581next": 936, "\u258135": 937, "\u2581anv\u00e4nder": 938, "\u2581small": 939, "\u2581Not": 940, "\u2581taking": 941, "\u2581money": 942, "\u2581having": 943, "\u2581present": 944, "\u2581Alla": 945, "\u2581whole": 946, "The": 947, "\u2581sex": 948, "\u2581safety": 949, "\u2581Jehovah": 950, "\u2581son": 951, "\u2581concerning": 952, "\u2581tredje": 953, "\u2581viktigt": 954, "\u2581family": 955, "\u2581v\u00e4g": 956, "\u2581anv\u00e4ndas": 957, "\u2581become": 958, "\u2581needs": 959, "\u2581experience": 960, "\u2581keep": 961, "\u2581Agreement": 962, "\u25812000": 963, "\u2581food": 964, "\u2581sm\u00e5": 965, "\u2581agreement": 966, "\u2581costs": 967, "\u2581st\u00e5r": 968, "\u2581show": 969, "ering": 970, "\u2581bad": 971, "\u2581Ta": 972, "\u2581St": 973, "\u2581s\u00e4rskilda": 974, "\u258140": 975, "\u2581increase": 976, "\u2581fel": 977, "ra": 978, "\u2581resultat": 979, "\u2581folk": 980, "\u2581real": 981, "\u2581Som": 982, "\u2581Be": 983, "\u2581Let": 984, "\u2581live": 985, "ne": 986, "_": 987, "\u2581>": 988, "\u2581inneb\u00e4r": 989, "\u2581local": 990, "\u2581months": 991, "\u2581systems": 992, "\u2581above": 993, "\u2581minst": 994, "\u2581OF": 995, "\u2581hem": 996, "j": 997, "\u2581delar": 998, "\u2581Dessa": 999, "\u2581political": 1000, "z": 1001, "\u2581r\u00e4ttigheter": 1002, "\u2581old": 1003, "\u2581required": 1004, "com": 1005, "\u2581kr\u00e4vs": 1006, "le": 1007, "\u2581Just": 1008, "\u2581amount": 1009, "\u2581women": 1010, "\u2581patienter": 1011, "\u2581ex": 1012, "\u2581Your": 1013, "\u2581few": 1014, "\u2581l": 1015, "\u2581behandling": 1016, "\u2581test": 1017, "\u2581training": 1018, "\u2581k\u00e4nner": 1019, "\u2581Having": 1020, "liga": 1021, "\u2581kind": 1022, "\u2581Okej": 1023, "\u2581light": 1024, "te": 1025, "\u2581feel": 1026, "00": 1027, "om": 1028, "\u2581With": 1029, "\u2581mest": 1030, "O": 1031, "\u2581villkor": 1032, "\u2581sade": 1033, "\u2581enda": 1034, "\u2581borde": 1035, "\u2581Till": 1036, "ton": 1037, "lig": 1038, "\u2581kontroll": 1039, "\u2581Kan": 1040, "\u2581house": 1041, "\u2581Yes": 1042, "up": 1043, "\u2581antal": 1044, "\u2581avtal": 1045, "\u2581clear": 1046, "\u2581framework": 1047, "\u2581established": 1048, "\u2581skapa": 1049, "\u2581anything": 1050, "\u2581applicable": 1051, "\u2581kraft": 1052, "ia": 1053, "\u2581inf\u00f6r": 1054, "\u2581cases": 1055, "\u2581H\u00e4r": 1056, "co": 1057, "\u2581project": 1058, "\u2581ramen": 1059, "\u2581till\u00e4mpas": 1060, "\u2581plats": 1061, "ig": 1062, "\u2581forskning": 1063, "\u2581companies": 1064, "\u2581interest": 1065, "\u2581regional": 1066, "\u2581One": 1067, "\u2581milj\u00f6": 1068, "\u2581medlemsstat": 1069, "\u2581niv\u00e5": 1070, "\u2581v\u00e5rt": 1071, "\u25811.": 1072, "\u2581English": 1073, "\u2581tiden": 1074, "\u2581called": 1075, "\u2581main": 1076, "\u2581senaste": 1077, "\u2581May": 1078, "\u2581thought": 1079, "\u2581June": 1080, "\u2581sk\u00e4l": 1081, "ment": 1082, "\u2581Vid": 1083, "sk": 1084, "\u2581projekt": 1085, "\u2581Inte": 1086, "ity": 1087, "\u2581utbildning": 1088, "\u2581k": 1089, "\u2581persons": 1090, "\u2581visa": 1091, "\u2581result": 1092, "\u2581s\u00e5dan": 1093, "\u2581d": 1094, "\u2581export": 1095, "\u2581list": 1096, "\u2581technical": 1097, "\u2581standard": 1098, "\u2581include": 1099, "\u2581came": 1100, "\u2581omr\u00e5den": 1101, "\u2581\u00e4nnu": 1102, "\u2581considered": 1103, "\u2581lot": 1104, "\u2581care": 1105, "\u2581left": 1106, "\u2581ever": 1107, "\u2581Hotel": 1108, "\u2581large": 1109, "\u2581mm": 1110, "\u2581juni": 1111, "\u2581single": 1112, "\u2581Hey": 1113, "ska": 1114, "\u2581samband": 1115, "\u2581Court": 1116, "\u2581online": 1117, "\u2581slut": 1118, "\u2581air": 1119, "\u2581gas": 1120, "\u2581issue": 1121, "\u2581III": 1122, "\u2581pre": 1123, "\u2581authority": 1124, "\u2581h\u00e4nsyn": 1125, "\u2581Sweden": 1126, "\u2581U": 1127, "\u25812006": 1128, "\u2581problems": 1129, "\u2581rate": 1130, "\u2581Thank": 1131, "\u2581000": 1132, "\u2581s\u00e4kerhet": 1133, "\u2581field": 1134, "\u2581terms": 1135, "\u2581Are": 1136, "\u2581amended": 1137, "\u2581namn": 1138, "):": 1139, "\u2581f\u00e5tt": 1140, "\u2581januari": 1141, "\u2581matter": 1142, "\u2581By": 1143, "Det": 1144, "\u2581km": 1145, "\u2581Min": 1146, "\u2581January": 1147, "\u2581syfte": 1148, "ns": 1149, "\u2581Av": 1150, "\u2581tog": 1151, "\u2581sidan": 1152, "\u2581internationella": 1153, "\u2581effect": 1154, "EN": 1155, "ter": 1156, "\u2581lika": 1157, "\u2581J": 1158, "\u2581Can": 1159, "\u2581blood": 1160, "\u2581lagstiftning": 1161, "\u2581veta": 1162, "ist": 1163, "\u2581rum": 1164, "\u2581ask": 1165, "\u2581members": 1166, "\u2581yet": 1167, "\u25812004": 1168, "\u2581making": 1169, "\u2581text": 1170, "land": 1171, "\u25812008": 1172, "\u2581legislation": 1173, "il": 1174, "\u2581United": 1175, "ling": 1176, "\u2581file": 1177, "\u2581ord": 1178, "\u2581omfattas": 1179, "\u2581s\u00e5som": 1180, "\u25812007": 1181, "\u2581D\u00e5": 1182, "\u2581talk": 1183, "\u2581krav": 1184, "\u2581n\u00e4ra": 1185, "\u2581current": 1186, "\u2581gick": 1187, "\u2581line": 1188, "\u2581content": 1189, "\u2581Enligt": 1190, "20": 1191, "\u2581times": 1192, "\u2581side": 1193, "\u2581f": 1194, "\u2581La": 1195, "\u2581Swedish": 1196, "fi": 1197, "\u2581emot": 1198, "\u2581laid": 1199, "\u2581h\u00e5ller": 1200, "\u2581ville": 1201, "\u2581behov": 1202, "\u25812013": 1203, "\u2581offer": 1204, "\u2581everything": 1205, "\u2581once": 1206, "\u25812005": 1207, "\u2581politiska": 1208, "\u2581car": 1209, "\u25812014": 1210, "\u2581effects": 1211, "\u2581state": 1212, "\u2581employment": 1213, "\u2581egen": 1214, "\u2581told": 1215, "\u2581dagar": 1216, "\u2581sj\u00e4lva": 1217, "\u2581offentliga": 1218, "\u25812002": 1219, "\u2581says": 1220, "%": 1221, "U": 1222, "\u2581meet": 1223, "\u2581okay": 1224, "\u2581tekniska": 1225, "\u2581fler": 1226, "and": 1227, "\u2581please": 1228, "\u2581environment": 1229, "\u2581Stockholm": 1230, "st": 1231, "\u2581resources": 1232, "\u2581co": 1233, "\u2581hitta": 1234, "des": 1235, "\u25812018": 1236, "\u2581instrument": 1237, "\u2581points": 1238, "\u2581ofta": 1239, "\u2581projects": 1240, "\u2581spel": 1241, "\u2581close": 1242, "\u2581gemenskaps": 1243, "\u2581Herr": 1244, "\u2581upon": 1245, "\u2581samtidigt": 1246, "\u2581Guds": 1247, "\u25812003": 1248, "\u2581nog": 1249, "\u2581Efter": 1250, "\u25812015": 1251, "\u2581blivit": 1252, "\u2581issues": 1253, "\u2581among": 1254, "\u2581r\u00f6r": 1255, "\u2581l\u00e4kemedel": 1256, "\u2581hours": 1257, "\u2581roll": 1258, "\u2581s\u00e4kerst\u00e4lla": 1259, "os": 1260, "7": 1261, "\u2581hit": 1262, "\u2581due": 1263, "\u2581vilja": 1264, "\u2581inga": 1265, "\u2581four": 1266, "um": 1267, "\u2581\u00f6ka": 1268, "\u2581environmental": 1269, "\u2581Genom": 1270, "\u2581inre": 1271, "\u25812009": 1272, "\u258160": 1273, "\u2581room": 1274, "\u2581fastst\u00e4lls": 1275, "\u2581Please": 1276, "ma": 1277, "\u2581July": 1278, "\u2581goods": 1279, "\u2581Then": 1280, "\u2581f\u00f6rdraget": 1281, "\u2581Information": 1282, "\u2581medel": 1283, "\u25812012": 1284, "\u2581l\u00e4nge": 1285, "\u2581nothing": 1286, "\u2581kvinnor": 1287, "\u2581according": 1288, "\u2581effective": 1289, "\u2581meeting": 1290, "\u25812011": 1291, "\u2581h\u00e5lla": 1292, "\u2581competent": 1293, "\u2581senare": 1294, "\u2581study": 1295, "\u25812010": 1296, "ur": 1297, "\u2581organisation": 1298, "\u2581utg\u00f6r": 1299, "\u2581addition": 1300, "\u2581finansiella": 1301, "\u2581levels": 1302, "ja": 1303, "\u2581myndigheterna": 1304, "\u2581took": 1305, "\u2581sen": 1306, "tal": 1307, "\u2581related": 1308, "\u2581tillg\u00e5ng": 1309, "\u2581private": 1310, "den": 1311, "\u2581continue": 1312, "\u2581final": 1313, "\u2581fyra": 1314, "\u2581impact": 1315, "\u2581growth": 1316, "\u2581prices": 1317, "\u2581st\u00f6rsta": 1318, "ism": 1319, "10": 1320, "\u2581AB": 1321, "\u2581understand": 1322, "\u2581ordf\u00f6rande": 1323, "\u2581omr\u00e5de": 1324, "\u2581\u00bb": 1325, "\u2581increased": 1326, "\u2581f\u00f6rb\u00e4ttra": 1327, "\u2581responsible": 1328, "\u2581nytt": 1329, "\u2581procedures": 1330, "\u2581vidare": 1331, "\u2581young": 1332, "\u2581role": 1333, "\u2581tax": 1334, "\u2581thereof": 1335, "iga": 1336, "\u2581egna": 1337, "\u2581gemenskapens": 1338, "min": 1339, "\u2581several": 1340, "\u2581establishing": 1341, "\u2581programmes": 1342, "\u2581heart": 1343, "\u2581request": 1344, "\u2581framf\u00f6r": 1345, "\u2581sent": 1346, "\u2581design": 1347, "\u2581enough": 1348, "\u2581society": 1349, "\u2581either": 1350, "\u2581h\u00f6gre": 1351, "\u2581beh\u00f6riga": 1352, "\u2581potential": 1353, "\u258190": 1354, "\u2581game": 1355, "\u2581svar": 1356, "\u2581leave": 1357, "\u2581education": 1358, "\u2581omr\u00e5det": 1359, "la": 1360, "\u2581+": 1361, "\u2581allm\u00e4nna": 1362, "\u2581carried": 1363, "\u2581m\u00e5nader": 1364, "\u2581fr\u00e4mja": 1365, "\u2581key": 1366, "\u2581D\u00e4rf\u00f6r": 1367, "\u2581genomf\u00f6rande": 1368, "\u2581others": 1369, "\u2581tro": 1370, "son": 1371, "\u2581cost": 1372, "ul": 1373, "u": 1374, "\u2581anti": 1375, "\u2581additional": 1376, "\u2581competition": 1377, "\u2581Go": 1378, "\u2581play": 1379, "\u2581however": 1380, "\u25811999": 1381, "\u2581table": 1382, "\u2581Visa": 1383, "\u2581n\u00f6dv\u00e4ndigt": 1384, "\u2581mars": 1385, "\u2581institutions": 1386, "ry": 1387, "\u2581bring": 1388, "\u2581l\u00e4mna": 1389, "\u2581equipment": 1390, "av": 1391, "\u2581senast": 1392, "\u2581review": 1393, "\u2581skydd": 1394, "\u2581varf\u00f6r": 1395, "\u2581March": 1396, "\u2581Social": 1397, "\u2581various": 1398, "\u25812016": 1399, "\u2581makes": 1400, "\u2581assessment": 1401, "\u2581fem": 1402, "\u2581resolution": 1403, "\u2581directly": 1404, "ligt": 1405, "\u2581five": 1406, "\u2581n\u00e5n": 1407, "\u2581b\u00e5da": 1408, "\u2581fr\u00e5gan": 1409, "\u2581f\u00f6rst": 1410, "\u2581pengar": 1411, "\u2581Our": 1412, "\u2581individual": 1413, "\u2581forts\u00e4tta": 1414, "\u2581god": 1415, "\u2581stort": 1416, "\u2581stay": 1417, "age": 1418, "\u2581October": 1419, "\u2581included": 1420, "\u2581v": 1421, "\u2581juli": 1422, "\u2581mind": 1423, "\u25814.": 1424, "\u2581purpose": 1425, "\u2581dose": 1426, "ol": 1427, "ie": 1428, "\u2581m\u00f6jlighet": 1429, "\u2581job": 1430, "\u2581often": 1431, "\u2581produkt": 1432, "\u2581Al": 1433, "\u2581oktober": 1434, "\u2581tas": 1435, "am": 1436, "\u2581officiella": 1437, "\u2581hope": 1438, "\u2581\u20ac": 1439, "\u2581extra": 1440, "\u2581investment": 1441, "\u2581sett": 1442, "\u2581changes": 1443, "\u2581val": 1444, "\u00e9": 1445, "ness": 1446, "\u2581L\u00e4s": 1447, "\u2581L\u00e5t": 1448, "\u2581city": 1449, "\u2581\u00e4ndring": 1450, "\u2581Group": 1451, "w": 1452, "\u25812001": 1453, "\u2581natural": 1454, "\u2581Who": 1455, "\u2581l\u00e4tt": 1456, "\u2581contact": 1457, "eller": 1458, "\u2581central": 1459, "\u2581dagen": 1460, "\u2581reference": 1461, "ten": 1462, "\u2581seen": 1463, "\u2581won": 1464, "\u2581went": 1465, "\u2581coming": 1466, "\u2581g\u00e5nger": 1467, "\u2581innovation": 1468, "ke": 1469, "\u2581f\u00f6rordningen": 1470, "\u2581region": 1471, "ger": 1472, "\u2581h\u00e4nder": 1473, "\u2581avsnitt": 1474, "\u2581More": 1475, "\u2581s\u00e5g": 1476, "\u2581provides": 1477, "\u2581grundl\u00e4ggande": 1478, "\u2581maj": 1479, "\u2581objectives": 1480, "\u2581approach": 1481, "\u2581particularly": 1482, "Y": 1483, "\u2581big": 1484, "\u2581pris": 1485, "\u2581utvecklingen": 1486, "\u2581grundval": 1487, "\u2581saker": 1488, "\u2581Internet": 1489, "\u2581improve": 1490, "0": 1491, "\u2581later": 1492, "erade": 1493, "\u2581minska": 1494, "\u25811,": 1495, "\u2581proposed": 1496, "\u2581government": 1497, "\u2581runt": 1498, "19": 1499, "\u2581major": 1500, "isk": 1501, "\u2581share": 1502, "\u2581cookies": 1503, "\u2581undantag": 1504, "ce": 1505, "\u2581standards": 1506, "\u25812.": 1507, "\u2581parties": 1508, "\u2581existing": 1509, "\u2581below": 1510, "\u2581post": 1511, "\u2581low": 1512, "\u2581needed": 1513, "\u2581typ": 1514, "\u2581pay": 1515, "\u2581similar": 1516, "\u2581genomf\u00f6randet": 1517, "\u2581stop": 1518, "J": 1519, "\u2581utanf\u00f6r": 1520, "\u2581ansvar": 1521, "\u2581tycker": 1522, "\u2581After": 1523, "\u2581l\u00e5ng": 1524, "\u2581avtalet": 1525, "\u2581active": 1526, "ant": 1527, "\u2581huvud": 1528, "ge": 1529, "\u2581snabbt": 1530, "\u2581policies": 1531, "\u2581Wi": 1532, "\u2581internal": 1533, "\u2581ges": 1534, "\u2581known": 1535, "\u2581m\u00e4n": 1536, "\u2581progress": 1537, "\u2581wrong": 1538, "\u2581l\u00e4gga": 1539, "X": 1540, "\u2581Israel": 1541, "\u2581talman": 1542, "\u2581pro": 1543, "do": 1544, "\u2581djur": 1545, "\u2581regler": 1546, "\u2581mat": 1547, "\u2581best\u00e4mmelserna": 1548, "\u2581knowledge": 1549, "der": 1550, "\u2581received": 1551, "\u258180": 1552, "\u2581relating": 1553, "\u2581trying": 1554, "\u2581age": 1555, "\u2581Republic": 1556, "\u2581head": 1557, "\u2581capital": 1558, "\u2581Good": 1559, "ER": 1560, "\u2581kommitt\u00e9n": 1561, "\u2581November": 1562, "\u2581towards": 1563, "\u2581X": 1564, "\u2581citizens": 1565, "6": 1566, "\u2581Sverige": 1567, "\u2581reason": 1568, "\u2581try": 1569, "\u2581global": 1570, "\u2581higher": 1571, "\u2581Economic": 1572, "\u2581organ": 1573, "by": 1574, "\u2581gav": 1575, "\u2581true": 1576, "\u2581Dessutom": 1577, "\u2581ago": 1578, "\u2581inklusive": 1579, "\u2581till\u00e4mpning": 1580, "\u2581September": 1581, "\u2581sorry": 1582, "\u2581TV": 1583, "\u2581Of": 1584, "\u2581groups": 1585, "\u2581kort": 1586, "\u2581erbjuder": 1587, "\u2581\u00c4ven": 1588, "\u2581wanted": 1589, "\u2581bidrag": 1590, "\u2581kvar": 1591, "\u2581actually": 1592, "\u25812017": 1593, "\u2581involved": 1594, "\u2581section": 1595, "\u2581Co": 1596, "\u2581m\u00e4nskliga": 1597, "\u2581minutes": 1598, "\u2581address": 1599, "\u2581About": 1600, "\u2581n": 1601, "no": 1602, "\u2581happened": 1603, "\u2581ned": 1604, "\u2581words": 1605, "\u2581longer": 1606, "\u2581Here": 1607, "\u2581\u00e5ret": 1608, "\u2581school": 1609, "\u2581rest": 1610, "id": 1611, "\u2581jordbruks": 1612, "\u00e4r": 1613, "\u2581faktiskt": 1614, "\u2581studies": 1615, "\u2581medan": 1616, "\u2581operation": 1617, "\u2581covered": 1618, "\u2581hear": 1619, "\u2581menar": 1620, "\u2581solution": 1621, "ine": 1622, "\u2581varandra": 1623, "\u2581fri": 1624, "\u2581*": 1625, "\u2581Bible": 1626, "\u2581Eftersom": 1627, "\u2581General": 1628, "\u2581hard": 1629, "\u2581nature": 1630, "\u2581questions": 1631, "\u2581looking": 1632, "5": 1633, "\u2581capacity": 1634, "OJ": 1635, "\u2581regards": 1636, "ka": 1637, "\u2581outside": 1638, "im": 1639, "\u2581sida": 1640, "\u2581site": 1641, "\u2581granted": 1642, "\u2581hotel": 1643, "\u2581Bra": 1644, "\u2581timmar": 1645, "\u2581purposes": 1646, "\u2581greater": 1647, "nas": 1648, "\u2581someone": 1649, "\u2581criteria": 1650, "\u2581Or": 1651, "\u2581easy": 1652, "\u2581read": 1653, "\u2581version": 1654, "see": 1655, "\u2581Artikel": 1656, "\u2581varor": 1657, "\u2581basic": 1658, "\u2581fishing": 1659, "ate": 1660, "\u2581november": 1661, "\u2581sak": 1662, "\u2581Kommissionens": 1663, "\u2581emellertid": 1664, "\u2581Read": 1665, "\u2581held": 1666, "\u2581\u00e5ter": 1667, "\u2581USA": 1668, "ik": 1669, "\u2581serious": 1670, "ga": 1671, "\u2581principle": 1672, "\u2581Look": 1673, "\u2581status": 1674, "\u2581Whereas": 1675, "\u2581allow": 1676, "\u2581doctor": 1677, "\u2581deal": 1678, "\u2581sista": 1679, "lo": 1680, "\u2581EC": 1681, "\u2581week": 1682, "\u2581animals": 1683, "\u2581April": 1684, "\u2581liknande": 1685, "\u2581especially": 1686, "\u2581civil": 1687, "\u2581forward": 1688, "\u2581dead": 1689, "va": 1690, "\u2581flesta": 1691, "\u2581september": 1692, "\u2581gratis": 1693, "@": 1694, "\u2581parlamentet": 1695, "\u2581d\u00f6da": 1696, "\u2581doesn": 1697, "\u2581actions": 1698, "\u2581significant": 1699, "\u2581Jehova": 1700, "di": 1701, "ive": 1702, "ro": 1703, "\u2581enter": 1704, "\u2581guy": 1705, "\u2581face": 1706, "50": 1707, "\u2581kvalitet": 1708, "\u2581t\u00e4nker": 1709, "\u2581fully": 1710, "\u2581maximum": 1711, "era": 1712, "\u2581death": 1713, "\u2581bit": 1714, "\u2581statistik": 1715, "\u2581strategy": 1716, "ner": 1717, "\u2581normal": 1718, "\u2581bank": 1719, "\u2581Kom": 1720, "\u2581Ska": 1721, "\u2581genomf\u00f6ra": 1722, "\u2581assistance": 1723, "\u2581fastst\u00e4lla": 1724, "\u2581book": 1725, "\u2581added": 1726, "\u2581\u00f6vriga": 1727, "\u2581politik": 1728, "\u2581systemet": 1729, "bo": 1730, "\u2581create": 1731, "\u2581ml": 1732, "ium": 1733, "\u2581vem": 1734, "\u2581Come": 1735, "of": 1736, "op": 1737, "\u2581applied": 1738, "\u2581b\u00f6rjar": 1739, "\u2581Other": 1740, "\u2581viktiga": 1741, "--": 1742, "\u2581myndigheter": 1743, "\u2581lead": 1744, "\u2581short": 1745, "\u2581leda": 1746, "30": 1747, "\u2581mark": 1748, "\u2581party": 1749, "\u2581par": 1750, "\u2581s\u00e5dant": 1751, "\u2581\u00e5rs": 1752, "\u2581s\u00e4ker": 1753, "och": 1754, "\u2581ing\u00e5r": 1755, "\u2581antalet": 1756, "\u2581yourself": 1757, "\u2581soon": 1758, "\u2581cent": 1759, "\u2581administration": 1760, "\u2581saying": 1761, "\u2581syssels\u00e4ttning": 1762, "\u2581200": 1763, "\u2581grupp": 1764, "\u2581markets": 1765, "\u2581activity": 1766, "\u2581betydelse": 1767, "ir": 1768, "\u2581Vill": 1769, "\u2581led": 1770, "8": 1771, "est": 1772, "\u2581arbets": 1773, "\u2581b\u00f6rjan": 1774, "\u2581living": 1775, "\u2581Free": 1776, "\u2581friend": 1777, "\u2581etc": 1778, "\u2581livet": 1779, "\u2581skin": 1780, "\u2581cross": 1781, "\u2581Medlemsstaterna": 1782, "\u2581fine": 1783, "gen": 1784, "\u2581hus": 1785, "\u2581turn": 1786, "\u2581d\u00f6d": 1787, "ningen": 1788, "\u2581precis": 1789, "\u2581f\u00f6lja": 1790, "men": 1791, "\u2581n\u00e4sta": 1792, "\u2581\u00e4lskar": 1793, "\u2581event": 1794, "\u2581handlar": 1795, "\u2581network": 1796, "\u2581run": 1797, "\u2581tillg\u00e4ngliga": 1798, "\u2581workers": 1799, "iv": 1800, "\u2581animal": 1801, "\u2581Official": 1802, "\u2581Some": 1803, "12": 1804, "\u2581verkar": 1805, "\u2581konkurrens": 1806, "\u2581monitoring": 1807, "\u2581n\u00f6dv\u00e4ndiga": 1808, "\u2581st\u00f6dja": 1809, "\u2581idea": 1810, "\u2581Vem": 1811, "\u2581intresse": 1812, "\u2581themselves": 1813, "\u2581snart": 1814, "\u2581range": 1815, "\u2581top": 1816, "\u2581r": 1817, "\u2581n\u00e4stan": 1818, "\u2581website": 1819, "\u2581father": 1820, "\u2581submitted": 1821, "one": 1822, "\u2581nuvarande": 1823, "\u2581child": 1824, "\u2581direktivet": 1825, "\u2581april": 1826, "\u2581integration": 1827, "\u2581University": 1828, "per": 1829, "ster": 1830, "\u2581F\u00d6R": 1831, "\u2581check": 1832, "\u2581El": 1833, "\u2581f\u00f6ljd": 1834, "\u2581performance": 1835, "ste": 1836, "\u2581else": 1837, "\u2581cover": 1838, "\u2581getting": 1839, "\u2581waste": 1840, "\u2581steg": 1841, "bar": 1842, "\u2581organisationer": 1843, "un": 1844, "\u258132": 1845, "\u2581omfattar": 1846, "\u2581Pro": 1847, "\u2581move": 1848, "\u2581heard": 1849, "ch": 1850, "\u2581regions": 1851, "\u2581Because": 1852, "\u2581Articles": 1853, "\u2581minimum": 1854, "\u2581talking": 1855, "\u2581building": 1856, "\u2581saw": 1857, "\u2581regarding": 1858, "\u2581vin": 1859, "\u2581f\u00f6ljer": 1860, "\u2581dessutom": 1861, "\u2581pursuant": 1862, "\u2581\u00e5": 1863, "\u2581kg": 1864, "\u2581s\u00e4kerhets": 1865, "\u2581l\u00e5ngt": 1866, "\u2581supply": 1867, "\u2581viktig": 1868, "\u2581Le": 1869, "for": 1870, "\u2581met": 1871, "\u2581itself": 1872, "\u2581remember": 1873, "\u2581parts": 1874, "\u2581Contact": 1875, "\u2581f\u00f6reskrivs": 1876, "\u2581heller": 1877, "\u2581bidra": 1878, "\u2581technology": 1879, "\u2581strong": 1880, "\u2581f\u00f6rs\u00f6ker": 1881, "ssystem": 1882, "\u2581EG": 1883, "\u2581uppn\u00e5": 1884, "\u2581weight": 1885, "\u2581Get": 1886, "\u2581average": 1887, "\u2581sir": 1888, "ty": 1889, "\u2581decisions": 1890, "\u2581gillar": 1891, "\u2581Ha": 1892, "\u2581st\u00e4llet": 1893, "25": 1894, "\u2581\u00e4ndras": 1895, "system": 1896, "\u2581annual": 1897, "\u2581ca": 1898, "\u2581administrative": 1899, "\u2581half": 1900, "\u2581hennes": 1901, "\u2581intended": 1902, "\u2581fan": 1903, "\u2581h": 1904, "\u2581comes": 1905, "\u2581Mer": 1906, "\u2581payment": 1907, "ance": 1908, "\u2581f\u00f6rst\u00e5r": 1909, "\u2581tillst\u00e5nd": 1910, "var": 1911, "\u2581kill": 1912, "\u2581Sa": 1913, "\u2581benefit": 1914, "\u2581agricultural": 1915, "yl": 1916, "\u2581hot": 1917, "\u2581beroende": 1918, "\u2581bar": 1919, "\u2581proposals": 1920, "40": 1921, "\u2581kr\u00e4ver": 1922, "\u2581context": 1923, "\u2581Jo": 1924, "\u2581landet": 1925, "\u2581February": 1926, "\u2581details": 1927, "\u2581lokala": 1928, "\u2581\u00e5ren": 1929, "\u2581direct": 1930, "ian": 1931, "\u2581works": 1932, "\u2581la": 1933, "\u2581beh\u00f6vs": 1934, "\u2581v\u00e4n": 1935, "\u25813.": 1936, "\u2581guys": 1937, "\u2581approved": 1938, "\u2581paid": 1939, "\u2581h\u00f6r": 1940, "\u2581analysis": 1941, "].": 1942, "\u2581di": 1943, "con": 1944, "\u2581communication": 1945, "AL": 1946, "\u2581lag": 1947, "\u2581spr\u00e5k": 1948, "\u2581nationell": 1949, "\u2581b\u00f6rjade": 1950, "\u2581Statistics": 1951, "\u2581reports": 1952, "\u2581februari": 1953, "\u2581term": 1954, "\u2581cm": 1955, "term": 1956, "\u2581follow": 1957, "\u2581principles": 1958, "\u2581fanns": 1959, "\u2581beg\u00e4ran": 1960, "\u2581act": 1961, "\u2581language": 1962, "\u2581till\u00e4mpningen": 1963, "\u2581asked": 1964, "me": 1965, "\u2581utveckla": 1966, "\u2581tillr\u00e4ckligt": 1967, "\u2581replaced": 1968, "\u2581operations": 1969, "\u2581produktion": 1970, "\u2581helst": 1971, "\u2581Maybe": 1972, "\u2581film": 1973, "\u2581dra": 1974, "\u2581weeks": 1975, "\u2581\u00e4nd\u00e5": 1976, "\u2581values": 1977, "\u2581Bull": 1978, "\u2581team": 1979, "\u2581yttrande": 1980, "\u2581initiativ": 1981, "\u2581instruments": 1982, "\u2581economy": 1983, "\u2581el": 1984, "\u2581parter": 1985, "\u2581enkelt": 1986, "em": 1987, "\u2581hoppas": 1988, "\u2581develop": 1989, "\u2581debate": 1990, "med": 1991, "\u2581designed": 1992, "\u2581past": 1993, "\u2581relation": 1994, "\u2581defined": 1995, "\u2581v\u00e4gen": 1996, "\u2581funds": 1997, "vis": 1998, "Fi": 1999, "\u2581importance": 2000, "\u2581l\u00e5g": 2001, "\u2581bodies": 2002, "\u2581ursprung": 2003, "90": 2004, "\u2581entry": 2005, "\u2581minuter": 2006, "\u2581slutet": 2007, "\u2581Din": 2008, "\u2581though": 2009, "\u2581From": 2010, "\u2581limited": 2011, "\u2581rapport": 2012, "\u2581exchange": 2013, "\u2581measure": 2014, "\u2581six": 2015, "\u2581ekonomisk": 2016, "\u2581totala": 2017, "\u2581f\u00f6rslaget": 2018, "\u2581agreements": 2019, "\u2581essential": 2020, "\u2581started": 2021, "\u2581road": 2022, "\u2581Kingdom": 2023, "\u2581objective": 2024, "ring": 2025, "\u2581cause": 2026, "\u2581sv\u00e5rt": 2027, "\u2581imports": 2028, "\u2581brought": 2029, "\u2581goda": 2030, "\u2581era": 2031, "\u2581office": 2032, "\u2581rather": 2033, "Vi": 2034, "\u2581viss": 2035, "\u2581AND": 2036, "\u2581alone": 2037, "\u2581organisations": 2038, "\u2581anses": 2039, "\u2581France": 2040, "\u2581earth": 2041, "\u2581thus": 2042, "\u2581programmet": 2043, "\u2581practice": 2044, "\u2581v\u00e4ldigt": 2045, "\u2581l\u00e4ra": 2046, "\u2581artiklarna": 2047, "\u2581page": 2048, "\u2581John": 2049, "\u2581sustainable": 2050, "\u2581kr": 2051, "\u2581wish": 2052, "\u2581uppfyller": 2053, "\u2581avser": 2054, "\u2581godk\u00e4nnande": 2055, "\u2581n\u00e4rvarande": 2056, "\u2581decided": 2057, "\u2581hotell": 2058, "\u2581Me": 2059, "In": 2060, "\u25812,": 2061, "\u258170": 2062, "\u2581Andra": 2063, "\u2581responsibility": 2064, "\u2581contains": 2065, "\u2581sub": 2066, "\u2581arbetar": 2067, "\u2581labour": 2068, "\u2581along": 2069, "\u2581publication": 2070, "\u2581l\u00e5ta": 2071, "\u2581tanke": 2072, "\u2581art": 2073, "\u2581ans\u00f6kan": 2074, ");": 2075, "\u2581partner": 2076, "\u2581Mrs": 2077, "\u2581v\u00e4rde": 2078, "\u2581OCH": 2079, "\u2581early": 2080, "\u2581meddelande": 2081, "\u2581hj\u00e4lper": 2082, "\u2581former": 2083, "\u2581dom": 2084, "\u2581staff": 2085, "\u2581EESC": 2086, "\u2581leder": 2087, "\u2581EES": 2088, "\u2581provision": 2089, "\u2581prata": 2090, "\u2581reform": 2091, "\u2581distribution": 2092, "\u2581k\u00e4nna": 2093, "\u2581evidence": 2094, "\u2581skydda": 2095, "9": 2096, "\u2581word": 2097, "\u2581respektive": 2098, "\u2581offers": 2099, "\u25811998": 2100, "\u2581Central": 2101, "\u2581svenska": 2102, "\u2581l\u00e4kare": 2103, "\u2581documents": 2104, "ary": 2105, "\u2581girl": 2106, "\u2581First": 2107, "\u2581m\u00f6jligheter": 2108, "\u2581arbeta": 2109, "\u2581See": 2110, "01": 2111, "\u2581front": 2112, "\u2581woman": 2113, "go": 2114, "\u2581attention": 2115, "\u2581return": 2116, "\u2581p\u00e5verkar": 2117, "\u2581ja": 2118, "\u2581kraven": 2119, "13": 2120, "\u2581implementing": 2121, "\u2581materials": 2122, "\u2581listed": 2123, "\u2581vehicle": 2124, "sta": 2125, "\u258133": 2126, "\u2581mother": 2127, "mo": 2128, "\u2581bil": 2129, "\u2581tio": 2130, "\u2581Appendix": 2131, "\u2581vars": 2132, "\u2581nice": 2133, "\u2581oil": 2134, "\u2581tack": 2135, "\u2581Varje": 2136, "\u2581developed": 2137, "\u2581sea": 2138, "\u2581ready": 2139, "\u2581Ingen": 2140, "\u2581h\u00e4lsa": 2141, "\u2581h\u00f6gst": 2142, "\u2581Bank": 2143, "\u2581amendments": 2144, "\u2581\u00f6ppna": 2145, "\u2581handel": 2146, "\u2581livsmedel": 2147, "\u2581tala": 2148, "\u2581disease": 2149, "\u2581trodde": 2150, "produkter": 2151, "\u2581positive": 2152, "\u2581arbetet": 2153, "\u2581credit": 2154, "\u2581kl": 2155, "\u2581tillv\u00e4xt": 2156, "\u2581Z": 2157, "\u2581mamma": 2158, "\u2581friends": 2159, "\u2581David": 2160, "\u2581haft": 2161, "\u2581created": 2162, "\u2581fucking": 2163, "\u2581fungerar": 2164, "\u2581fixed": 2165, "\u2581member": 2166, "upp": 2167, "\u2581kommit": 2168, "\u2581myndigheten": 2169, "\u2581klart": 2170, "\u2581takes": 2171, "\u2581almost": 2172, "\u2581teknik": 2173, "\u2581liten": 2174, "\u2581opportunity": 2175, "\u2581Allt": 2176, "\u2581idag": 2177, "\u2581finansiering": 2178, "\u2581across": 2179, "mer": 2180, "\u2581\u00f6vervakning": 2181, "\u2581\u00e4mnen": 2182, "\u2581regulation": 2183, "\u2581okej": 2184, "\u2581quite": 2185, "\u2581Did": 2186, "berg": 2187, "\u2581prevent": 2188, "igt": 2189, "\u2581gamla": 2190, "\u2581published": 2191, "\u25811996": 2192, "\u2581original": 2193, "\u2581relevanta": 2194, "\u2581Na": 2195, "\u2581difficult": 2196, "\u2581bo": 2197, "\u2581b\u00f6rja": 2198, "\u2581r\u00e4ttsliga": 2199, "\u2581lower": 2200, "\u2581Mar": 2201, "14": 2202, "\u2581g\u00e5ngen": 2203, "\u2581s\u00e4kert": 2204, "\u2581reasons": 2205, "\u2581war": 2206, "\u2581reduce": 2207, "ren": 2208, "\u2581\u00e4ndringsf\u00f6rslag": 2209, "\u2581types": 2210, "\u2581=": 2211, "\u2581EEA": 2212, "\u2581synnerhet": 2213, "\u2581kostnader": 2214, "\u2581gemensam": 2215, "\u2581complete": 2216, "lar": 2217, "\u2581events": 2218, "niv\u00e5": 2219, "stat": 2220, "\u2581beautiful": 2221, "\u2581video": 2222, "\u2581Commissioner": 2223, "\u2581Home": 2224, "\u2581Germany": 2225, "\u2581charge": 2226, "\u2581sound": 2227, "\u2581igenom": 2228, "\u2581located": 2229, "\u2581x": 2230, "\u2581wine": 2231, "\u2581bakgrund": 2232, "\u2581efforts": 2233, "\u2581sales": 2234, "val": 2235, "\u2581visste": 2236, "\u2581World": 2237, "\u2581hell": 2238, "\u2581House": 2239, "\u2581con": 2240, "\u2581follows": 2241, "\u2581recent": 2242, "\u2581model": 2243, "\u2581equal": 2244, "ak": 2245, "else": 2246, "\u2581population": 2247, "\u2581achieve": 2248, "\u2581rekommendation": 2249, "\u2581Convention": 2250, "ler": 2251, "\u2581Development": 2252, "\u2581news": 2253, "\u2581answer": 2254, "\u2581v\u00e4lja": 2255, "\u2581pressure": 2256, "tro": 2257, "\u2581step": 2258, "\u2581fight": 2259, "ell": 2260, "\u2581framtiden": 2261, "ier": 2262, "\u2581interests": 2263, "\u2581500": 2264, "\u2581g\u00f6ras": 2265, "\u2581viktigaste": 2266, "\u2581bed\u00f6mning": 2267, "\u2581self": 2268, "tor": 2269, "ies": 2270, "\u2581fiske": 2271, "\u2581origin": 2272, "\u2581methods": 2273, "ated": 2274, "mm": 2275, "\u2581search": 2276, "\u2581stycket": 2277, "som": 2278, "\u2581morning": 2279, "\u2581samtliga": 2280, "\u2581st": 2281, "\u25813,": 2282, "\u2581ljus": 2283, "\u2581gave": 2284, "Du": 2285, "\u2581Bryssel": 2286, "\u2581specified": 2287, "+": 2288, "\u2581ers\u00e4ttas": 2289, "del": 2290, "\u2581previous": 2291, "\u2581International": 2292, "\u2581f\u00f6rvaltning": 2293, "\u2581media": 2294, "\u258175": 2295, "\u2581Tyskland": 2296, "\u2581modern": 2297, "Vad": 2298, "\u2581allts\u00e5": 2299, "\u2581Bo": 2300, "\u2581truth": 2301, "\u2581blod": 2302, "\u2581thank": 2303, "\u2581glad": 2304, "\u2581l\u00f6sning": 2305, "\u2581consider": 2306, "\u2581finnas": 2307, "\u2581directive": 2308, "\u2581contribution": 2309, "\u2581tagit": 2310, "post": 2311, "\u2581eget": 2312, "\u2581rates": 2313, "\u00f6": 2314, "\u2581containing": 2315, "11": 2316, "ci": 2317, "\u25811995": 2318, "\u2581expenditure": 2319, "form": 2320, "\u2581v\u00e4nner": 2321, "\u2581Helsinki": 2322, "\u2581effektivt": 2323, "\u2581Ge": 2324, "\u2581ber\u00e4tta": 2325, "\u2581fordon": 2326, "\u2581g\u00e4lla": 2327, "ung": 2328, "\u2581receive": 2329, "nings": 2330, "\u2581l\u00e5ter": 2331, "\u2581associated": 2332, "80": 2333, "\u2581EESK": 2334, "\u2581medborgare": 2335, "\u2581situationen": 2336, "\u2581f\u00f6rs\u00e4ljning": 2337, "\u2581promote": 2338, "rum": 2339, "\u2581joint": 2340, "\u25811997": 2341, "\u2581jorden": 2342, "\u2581oberoende": 2343, "\u2581IV": 2344, "till": 2345, "out": 2346, "\u2581space": 2347, "\u2581ej": 2348, "\u2581whose": 2349, "\u2581D\u00e4r": 2350, "\u2581isn": 2351, "\u2581benefits": 2352, "\u2581vehicles": 2353, "\u2581external": 2354, "ca": 2355, "\u2581pappa": 2356, "\u2581applications": 2357, "\u2581reported": 2358, "\u2581kv\u00e4ll": 2359, "9/": 2360, "\u2581Brussels": 2361, "\u2581Euro": 2362, "\u2581safe": 2363, "\u2581developing": 2364, "\u2581agree": 2365, "\u2581trots": 2366, "\u2581natt": 2367, "\u2581amending": 2368, "\u2581behalf": 2369, "\u2581f\u00f6retaget": 2370, "\u2581lever": 2371, "\u2581games": 2372, "\u2581f\u00f6rfaranden": 2373, "\u258136": 2374, "led": 2375, "\u2581producers": 2376, "\u2581loss": 2377, "\u258134": 2378, "\u2581omkring": 2379, "\u2581property": 2380, "15": 2381, "\u2581Dr": 2382, "\u2581approval": 2383, "\u2581overall": 2384, "\u2581size": 2385, "ningar": 2386, "\u2581regionala": 2387, "\u2581clearly": 2388, "\u2581\u00f6kade": 2389, "lin": 2390, "17": 2391, "\u2581plant": 2392, "\u2581r\u00e5d": 2393, "\u2581dis": 2394, "\u2581vote": 2395, "\u2581Lord": 2396, "\u2581hair": 2397, "\u2581rad": 2398, "\u2581consumption": 2399, "\u2581Agency": 2400, "tr\u00e4der": 2401, "\u2581detailed": 2402, "\u2581ihop": 2403, "\u2581morgon": 2404, "\u2581obligations": 2405, "\u2581month": 2406, "\u2581everyone": 2407, "\u2581l\u00e4mpligt": 2408, "\u2581partners": 2409, "\u2581August": 2410, "bi": 2411, "line": 2412, "\u2581tur": 2413, "\u2581lost": 2414, "\u2581expected": 2415, "\u2581French": 2416, "\u2581betydande": 2417, "\u2581wait": 2418, "ha": 2419, "\u2581utrustning": 2420, "pa": 2421, "\u2581document": 2422, "\u2581liksom": 2423, "\u2581Ut": 2424, "\u2581method": 2425, "\u2581SEK": 2426, "\u2581ute": 2427, "\u2581Ar": 2428, "\u2581providing": 2429, "\u2581Since": 2430, "\u2581belopp": 2431, "\u2581peace": 2432, "\u2581buy": 2433, "\u2581bet\u00e4nkande": 2434, "\u2581Therefore": 2435, "\u2581vecka": 2436, "rs": 2437, "\u2581hold": 2438, "\u2581knew": 2439, "\u2581l\u00e4mpliga": 2440, "\u2581Journal": 2441, "f\u00f6rdraget": 2442, "\u2581transfer": 2443, "\u2581vidta": 2444, "\u2581dog": 2445, "\u2581perioden": 2446, "ven": 2447, "\u2581motor": 2448, "\u2581statistics": 2449, "\u2581samman": 2450, "Z": 2451, "\u2581duty": 2452, "\u2581wife": 2453, "\u2581carry": 2454, "we": 2455, "mar": 2456, "\u2581matters": 2457, "\u2581R\u00e5det": 2458, "\u2581presented": 2459, "\u2581substances": 2460, "\u2581bilagan": 2461, "\u2581currently": 2462, "\u2581investigation": 2463, "\u2581reduction": 2464, "\u2581f\u00f6rfarandet": 2465, "\u2581medelstora": 2466, "\u2581Paul": 2467, "\u2581nor": 2468, "\u2581h\u00f6ra": 2469, "\u2581patient": 2470, "\u2581familj": 2471, "\u2581delta": 2472, "\u2581sagt": 2473, "\u2581300": 2474, "24": 2475, "\u2581Per": 2476, "ous": 2477, "\u2581focus": 2478, "000": 2479, "\u2581aim": 2480, "\u2581moment": 2481, "\u2581Fr\u00e5n": 2482, "DE": 2483, "\u2581official": 2484, "\u258145": 2485, "\u2581visade": 2486, "\u2581require": 2487, "\u2581code": 2488, "\u2581slag": 2489, "\u2581door": 2490, "\u2581h\u00f6gsta": 2491, "\u2581hands": 2492, "\u2581[1],": 2493, "AR": 2494, "\u2581l\u00e4nderna": 2495, "\u2581behind": 2496, "\u2581response": 2497, "ow": 2498, "\u2581contract": 2499, "\u2581beslutet": 2500, "\u2581band": 2501, "tin": 2502, "\u2581industrial": 2503, "\u2581remain": 2504, "\u2581ledig": 2505, "\u2581agreed": 2506, "\u2581myself": 2507, "\u2581effekt": 2508, "\u2581fullt": 2509, "gg": 2510, "\u2581Start": 2511, "\u258137": 2512, "\u2581europeisk": 2513, "\u2581riktigt": 2514, "\u2581crisis": 2515, "\u2581National": 2516, "ni": 2517, "\u2581Jehovas": 2518, "\u2581US": 2519, "dll": 2520, "\u2581Service": 2521, "\u2581EUROPEAN": 2522, "\u2581avoid": 2523, "\u25812019": 2524, "\u2581vare": 2525, "\u2581shown": 2526, "\u2581white": 2527, "\u2581baby": 2528, "ac": 2529, "\u2581adopt": 2530, "16": 2531, "\u2581history": 2532, "\u2581operating": 2533, "\u2581jobb": 2534, "\u00f6r": 2535, "\u2581tydligt": 2536, "\u2581enskilda": 2537, "\u2581privata": 2538, "?\"": 2539, "EUT": 2540, "60": 2541, "io": 2542, "\u2581strategi": 2543, "\u2581Upp": 2544, "\u2581fr\u00e4mst": 2545, "\u2581learn": 2546, "\u2581dokument": 2547, "\u2581protect": 2548, "\u2581users": 2549, "23": 2550, "dy": 2551, "\u2581scope": 2552, "\u2581visit": 2553, "\u2581consumer": 2554, "\u2581talar": 2555, "\u2581customs": 2556, "\u2581produced": 2557, "vi": 2558, "\u2581billion": 2559, "\u2581Y": 2560, "\u2581Board": 2561, "\u2581undvika": 2562, "\u2581bakom": 2563, "\u2581resurser": 2564, "tan": 2565, "ator": 2566, "\u2581(1)": 2567, "\u2581gott": 2568, "\u2581\u00e4ndringar": 2569, "\u2581funding": 2570, "\u2581San": 2571, "\u2581throughout": 2572, "\u2581arrangements": 2573, "\u2581institution": 2574, "\u2581ske": 2575, "ting": 2576, "\u2581uppfylla": 2577, "\u2581wasn": 2578, "\u2581Search": 2579, "\u2581framsteg": 2580, "\u2581s\u00e4tta": 2581, "\u2581l\u00e4gre": 2582, "\u2581samh\u00e4llet": 2583, "\u2581includes": 2584, "\u2581AV": 2585, "\u2581antingen": 2586, "\u2581\u00e4ndra": 2587, "\u2581customers": 2588, "\u2581limit": 2589, "\u2581enheter": 2590, "\u2581His": 2591, "\u2581happy": 2592, "\u2581enbart": 2593, "\u2581h\u00e5llbar": 2594, "\u2581investeringar": 2595, "\u2581choose": 2596, "\u2581format": 2597, "tj\u00e4nster": 2598, "less": 2599, "\u2581balance": 2600, "vin": 2601, "\u2581pass": 2602, "r\u00e4tt": 2603, "ard": 2604, "\u2581movement": 2605, "\u2581reviews": 2606, "\u2581spela": 2607, "\u2581fru": 2608, "\u2581vikt": 2609, "\u2581marketing": 2610, "\u258185": 2611, "ina": 2612, "\u2581function": 2613, "\u2581anyone": 2614, "\u2581user": 2615, "\u2581alternativ": 2616, "\u2581Part": 2617, "\u2581Di": 2618, "\u2581gives": 2619, "\u2581skada": 2620, "\u2581Con": 2621, "\u2581Paris": 2622, "\u2581bild": 2623, "\u2581veckor": 2624, "\u2581ifr\u00e5n": 2625, "\u2581travel": 2626, "\u2581guarantee": 2627, "\u2581red": 2628, "\u2581establish": 2629, "\u2581insulin": 2630, "\u2581ten": 2631, "\u2581tidning": 2632, "\u2581entire": 2633, "\u2581forts\u00e4tter": 2634, "\u2581killed": 2635, "\u2581Thanks": 2636, "\u2581mentioned": 2637, "\u2581compared": 2638, "ek": 2639, "\u2581betyder": 2640, "ti": 2641, "\u2581draft": 2642, "\u2581recommended": 2643, "\u2581priser": 2644, "\u2581h\u00e4nde": 2645, "ED": 2646, "\u2581\u00f6kad": 2647, "ft": 2648, "\u2581opportunities": 2649, "\u2581st\u00f6der": 2650, "\u2581Frankrike": 2651, "\u2581reach": 2652, "\u2581F\u00d6LJANDE": 2653, "\u2581efficiency": 2654, "\u2581send": 2655, "\u2581VI": 2656, "itet": 2657, "\u2581issued": 2658, "\u2581Kommitt\u00e9n": 2659, "\u2581lack": 2660, "22": 2661, "\u2581thinking": 2662, "\u2581UN": 2663, "\u2581eyes": 2664, "\u2581f\u00f6rh\u00e5llande": 2665, "\u2581dit": 2666, "\u2581metoder": 2667, "\u2581t\u00e4nka": 2668, "\u2581syftar": 2669, "\u2581motsvarande": 2670, "\u2581wanna": 2671, "\u2581commercial": 2672, "\u2581h\u00f6ga": 2673, "\u2581m\u00f6jliga": 2674, "\u2581Research": 2675, "70": 2676, "\u2581unto": 2677, "\u2581Party": 2678, "\u2581HAR": 2679, "\u2581sker": 2680, "\u2581d\u00e4rmed": 2681, "\u2581borta": 2682, "\u2581syn": 2683, "\u2581framtida": 2684, "\u2581Fund": 2685, "\u2581Bar": 2686, "ES": 2687, "\u2581scheme": 2688, "\u2581Mo": 2689, "\u2581ones": 2690, "\u2581forms": 2691, "erad": 2692, "\u2581Q": 2693, "\u2581Google": 2694, "\u2581villkoren": 2695, "fil": 2696, "ating": 2697, "\u2581maybe": 2698, "\u2581uppgift": 2699, "\u2581himself": 2700, "\u2581avg\u00f6rande": 2701, "\u2581consumers": 2702, "hi": 2703, "\u2581f\u00f6rst\u00e5": 2704, "\u2581wants": 2705, "\u2581miss": 2706, "pe": 2707, "\u2581Car": 2708, "\u2581omfattande": 2709, "\u2581g\u00e4llande": 2710, "\u2581radio": 2711, "\u2581Christ": 2712, "he": 2713, "\u2581skriva": 2714, "\u2581fil": 2715, "\u2581(2)": 2716, "\u2581York": 2717, "\u2581produkten": 2718, "\u2581hittar": 2719, "\u2581Portugal": 2720, "\u2581Ben": 2721, "\u2581ground": 2722, "\u2581f\u00f6rfarande": 2723, "\u2581best\u00e5r": 2724, "\u2581Report": 2725, "\u2581stock": 2726, "\u2581Section": 2727, "\u2581processing": 2728, "ot": 2729, "\u2581insurance": 2730, "\u2581inside": 2731, "\u2581anta": 2732, "\u2581speak": 2733, "\u2581universitet": 2734, "\u2581authorisation": 2735, "\u258138": 2736, "\u2581probably": 2737, "35": 2738, "\u2581fire": 2739, "\u2581ways": 2740, "\u2581n\u00e5": 2741, "18": 2742, "\u2581circumstances": 2743, "\u2581Hans": 2744, "\u2581gone": 2745, "\u2581connection": 2746, "\u2581augusti": 2747, "\u2581Government": 2748, "\u2581participation": 2749, "\u2581Ex": 2750, "\u2581omst\u00e4ndigheter": 2751, "\u2581delen": 2752, "1/": 2753, "\u2581G\u00f6r": 2754, "\u2581immediately": 2755, "net": 2756, "\u2581ovan": 2757, "\u2581species": 2758, "\u2581compliance": 2759, "\u2581daily": 2760, "\u2581infrastructure": 2761, "\u2581Show": 2762, "\u2581k\u00f6pa": 2763, "\u2581allowed": 2764, "\u2581behandlingen": 2765, "\u00a4": 2766, "\u2581j\u00e4mf\u00f6rt": 2767, "\u2581territory": 2768, "\u2581V\u00e4nta": 2769, "\u2581Programme": 2770, ",\"": 2771, "7/": 2772, "\u2581bevis": 2773, "\u2581S\u00f6k": 2774, "\u2581map": 2775, "\u2581fish": 2776, "\u2581betala": 2777, "\u2581late": 2778, "\u2581m\u00e5let": 2779, "\u2581evaluation": 2780, "\u2581kapital": 2781, "\u2581[...]": 2782, "21": 2783, "\u2581haven": 2784, "\u2581interested": 2785, "\u2581fastst\u00e4llas": 2786, "\u2581insatser": 2787, "\u2581states": 2788, "\u2581sugar": 2789, "\u2581G\u00e5": 2790, "\u2581climate": 2791, "\u2581ad": 2792, "\u2581establishment": 2793, "\u2581Price": 2794, "\u2581ton": 2795, "\u2581risks": 2796, "ag": 2797, "\u2581stage": 2798, "vo": 2799, "\u2581sense": 2800, "\u2581befintliga": 2801, "\u2581solutions": 2802, "\u2581shows": 2803, "\u2581adoption": 2804, "\u2581Windows": 2805, "\u2581shit": 2806, "\u2581kunder": 2807, "\u2581sectors": 2808, "\u2581nedan": 2809, "\u2581miljarder": 2810, "\u2581paper": 2811, "\u2581reduced": 2812, "ko": 2813, "\u2581n\u00e4mligen": 2814, "\u2581Sch": 2815, "tra": 2816, "\u2581regulations": 2817, "\u2581Vet": 2818, "\u25811994": 2819, "\u2581ty": 2820, "\u2581exactly": 2821, "\u2581stand": 2822, "\u2581Inga": 2823, "\u2581pain": 2824, "\u2581kunskap": 2825, "\u2581Sedan": 2826, "\u2581happen": 2827, "\u2581\u00e4ldre": 2828, "\u2581lives": 2829, "our": 2830, "\u2581definition": 2831, "ish": 2832, "\u2581spirit": 2833, "ING": 2834, "\u2581cut": 2835, "\u2581save": 2836, "\u2581hemma": 2837, "\u2581students": 2838, "\u2581eventuella": 2839, "ise": 2840, "\u2581tull": 2841, "\u2581flyg": 2842, "\u2581Right": 2843, "\u2581source": 2844, "\u2581unscheduled": 2845, "\u2581London": 2846, "\u2581Press": 2847, "\u2581latest": 2848, "\u2581EUROPEISKA": 2849, "\u2581:": 2850, "\u2581n\u00e4rmare": 2851, "\u2581emissions": 2852, "\u2581computer": 2853, "\u2581bio": 2854, "\u2581South": 2855, "\u2581beginning": 2856, "\u2581giving": 2857, "\u2581inneh\u00e5ll": 2858, "\u2581f\u00e4rg": 2859, "\u2581centre": 2860, "\u2581egenskaper": 2861, "\u2581determined": 2862, "GENOM": 2863, "mon": 2864, "\u2581m\u00f6te": 2865, "\u2581studier": 2866, "\u2581choice": 2867, "\u2581deltagande": 2868, "\u2581gjorts": 2869, "\u2581till\u00e4mpa": 2870, "\u2581financing": 2871, "\u2581achieved": 2872, "\u2581utom": 2873, "\u2581die": 2874, "\u2581kontakt": 2875, "isation": 2876, "\u2581fun": 2877, "\u2581Pre": 2878, "8/": 2879, "*": 2880, "\u2581bed": 2881, "\u2581scientific": 2882, "lan": 2883, "ence": 2884, "\u2581press": 2885, "\u2581freedom": 2886, "\u2581foreign": 2887, "\u2581fartyg": 2888, "program": 2889, "\u2581walk": 2890, "99": 2891, "\u2581phone": 2892, "32": 2893, "\u2581medical": 2894, "\u2581Kina": 2895, "\u2581Ra": 2896, "\u2581IN": 2897, "\u2581verktyg": 2898, "\u2581guidelines": 2899, "\u2581Vilken": 2900, "\u2581inter": 2901, "\u2581r\u00e4tta": 2902, "ans": 2903, "sson": 2904, "\u2581favour": 2905, "\u2581meaning": 2906, "\u2581treated": 2907, "\u2581airport": 2908, "\u2581According": 2909, "\u2581police": 2910, "75": 2911, "\u2581class": 2912, "\u2581setting": 2913, "\u2581volume": 2914, "\u2581f\u00f6rhindra": 2915, "\u2581majority": 2916, "\u2581uses": 2917, "\u25814,": 2918, "\u2581subparagraph": 2919, "\u2581creation": 2920, "\u2581message": 2921, "\u2581omedelbart": 2922, "\u2581behandlas": 2923, "\u2581series": 2924, "ber": 2925, "\u2581contribute": 2926, "\u2581\u00e5lder": 2927, "\u2581tillhandah\u00e5lla": 2928, "\u2581bygga": 2929, "\u2581figure": 2930, "\u2581ECB": 2931, "\u2581<": 2932, "\u2581grad": 2933, "\u2581parents": 2934, "\u2581simply": 2935, "vir": 2936, "time": 2937, "2,": 2938, "iskt": 2939, "\u2581b\u00e4st": 2940, "\u2581ibland": 2941, "\u2581aktuella": 2942, "\u2581mass": 2943, "\u2581g\u00e5tt": 2944, "eu": 2945, "\u2581fundamental": 2946, "\u2581f\u00f6r\u00e4ndringar": 2947, "\u2581wouldn": 2948, "ella": 2949, "\u2581H\u00c4RI": 2950, "\u2581digital": 2951, "\u2581extent": 2952, "\u2581China": 2953, "\u2581aspects": 2954, "\u2581German": 2955, "\u2581construction": 2956, "\u2581s\u00e5v\u00e4l": 2957, "\u2581\u00f6gon": 2958, "\u2581likely": 2959, "\u2581negotiations": 2960, "so": 2961, "tid": 2962, "\u2581kapitel": 2963, "\u2581Data": 2964, "\u2581meter": 2965, "ub": 2966, "van": 2967, "\u2581drift": 2968, "\u2581fair": 2969, "\u2581uppdrag": 2970, "sh": 2971, "\u2581written": 2972, "\u2581leva": 2973, "\u2581Tell": 2974, "\u2581dvs": 2975, "\u2581st\u00e4rka": 2976, "\u2581st\u00e4llning": 2977, "pi": 2978, "\u2581s\u00e4kra": 2979, "\u2581initiative": 2980, "tar": 2981, "\u2581ganska": 2982, "\u2581st\u00e5": 2983, "\u2581f\u00f6rs\u00f6ka": 2984, "\u2581grupper": 2985, "\u2581F\u00d6RESKRIV": 2986, "\u2581goes": 2987, "\u2581kontrollera": 2988, "\u2581klimat": 2989, "information": 2990, "\u2581herr": 2991, "\u2581dos": 2992, "\u2581konkurrenskraft": 2993, "EL": 2994, "IT": 2995, "\u2581antog": 2996, "\u2581vapen": 2997, "\u2581web": 2998, "slag": 2999, "\u2581visat": 3000, "\u2581Peter": 3001, "\u258148": 3002, "\u2581jobs": 3003, "\u2581prior": 3004, "\u25816.": 3005, "\u2581visst": 3006, "\u2581anst\u00e4llda": 3007, "\u2581near": 3008, "\u2581s\u00e4rskild": 3009, "\u2581substance": 3010, ".1": 3011, "\u2581cell": 3012, "pro": 3013, "\u2581hel": 3014, "ley": 3015, "\u2581dialogue": 3016, "\u2581marknads": 3017, "\u258139": 3018, "\u2581plans": 3019, "\u00f6verensst\u00e4mmelse": 3020, "\u2581tillg\u00e4nglig": 3021, "\u2581board": 3022, "\u2581drive": 3023, "\u2581professional": 3024, "\u2581laws": 3025, "\u2581concerns": 3026, "\u2581elements": 3027, "\u2581\u00e5tg\u00e4rderna": 3028, "\u2581drink": 3029, "\u2581electronic": 3030, "\u2581eat": 3031, "\u2581ber": 3032, "\u2581Svenska": 3033, "\u2581DLL": 3034, "\u2581calls": 3035, "\u2581tj\u00e4nst": 3036, "\u2581device": 3037, "\u2581cancer": 3038, "\u2581tr\u00e4ffa": 3039, "\u2581System": 3040, "\u2581comply": 3041, "\u2581perfect": 3042, "tic": 3043, "red": 3044, "\u2581welcome": 3045, "\u2581st\u00f6det": 3046, "\u2581music": 3047, "\u2581centrala": 3048, "\u2581Pris": 3049, "\u2581relations": 3050, "\u2581f\u00f6rem\u00e5l": 3051, "\u2581increasing": 3052, "\u2581installation": 3053, "\u2581industri": 3054, "aren": 3055, "\u2581demand": 3056, "\u2581w": 3057, "ran": 3058, "\u2581l\u00e5t": 3059, "\u2581operators": 3060, "\u2581THIS": 3061, "ju": 3062, "\u2581rapporteur": 3063, "\u2581town": 3064, "\u2581assets": 3065, "\u2581tecken": 3066, "\u2581gotta": 3067, "\u258195": 3068, "\u2581l\u00e4sa": 3069, "\u2581till\u00e4mplig": 3070, "ET": 3071, "omr\u00e5det": 3072, "kar": 3073, "\u2581requires": 3074, "De": 3075, "ron": 3076, "\u2581gemensamt": 3077, "45": 3078, "\u2581laying": 3079, "\u2581Check": 3080, "\u2581combination": 3081, "\u2581HAS": 3082, "\u2581vanliga": 3083, "\u2581rule": 3084, "\u2581president": 3085, "pre": 3086, "\u2581omfatta": 3087, "\u2581multi": 3088, "\u2581\u00e5tg\u00e4rd": 3089, "\u2581Christian": 3090, "\u2581concern": 3091, "\u2581regulatory": 3092, "\u2581Joint": 3093, "You": 3094, "\u2581handling": 3095, "\u2581hantera": 3096, "\u2581sektorn": 3097, "kan": 3098, "\u2581dator": 3099, "\u2581Each": 3100, "\u2581Director": 3101, "\u2581binding": 3102, "\u2581brott": 3103, "kon": 3104, "\u2581sale": 3105, "\u2581register": 3106, "\u2581except": 3107, "\u2581condition": 3108, "\u2581payments": 3109, "ver": 3110, "\u2581brother": 3111, "\u2581till\u00e4mpliga": 3112, "\u2581Sam": 3113, "\u2581tag": 3114, "\u2581storage": 3115, "29": 3116, "\u2581intressen": 3117, "\u2581150": 3118, "\u2581sufficient": 3119, "\u2581utstr\u00e4ckning": 3120, "\u2581bindande": 3121, "\u2581Even": 3122, "\u2581typer": 3123, "\u2581exercise": 3124, "nummer": 3125, "\u2581garantera": 3126, "\u2581chance": 3127, "\u2581behovet": 3128, "\u2581possibility": 3129, "\u2581F\u00f6renta": 3130, "\u2581g\u00f6rs": 3131, "\u2581Am": 3132, "95": 3133, "skap": 3134, "\u2581livsmedels": 3135, "\u2581funktion": 3136, "28": 3137, "05": 3138, "\u2581unit": 3139, "\u2581skatte": 3140, "\u2581tillverkning": 3141, "\u2581package": 3142, "len": 3143, "\u2581Po": 3144, "\u2581mening": 3145, "\u2581milk": 3146, "\u2581inform": 3147, "\u2581S\u00e4g": 3148, "\u2581sjukdom": 3149, "based": 3150, "\u2581Ne": 3151, "\u2581pretty": 3152, "\u2581internet": 3153, "\u2581simple": 3154, "\u2581underl\u00e4tta": 3155, "\u2581whom": 3156, "\u2581fuck": 3157, "\u2581priority": 3158, "\u2581M\u00e5nga": 3159, "\u2581base": 3160, "\u2581medlemmar": 3161, "\u2581\u00f6verenskommelse": 3162, "\u2581accept": 3163, "du": 3164, "\u2581Policy": 3165, "\u2581Have": 3166, "\u2581cirka": 3167, "\u2581notice": 3168, "\u2581fallet": 3169, "\u2581ih\u00e5g": 3170, "ett": 3171, "\u2581Fa": 3172, "\u2581V\u00e5r": 3173, "\u2581note": 3174, "\u2581medicinal": 3175, "\u2581effekter": 3176, "\u2581medlemsstaten": 3177, "\u2581enable": 3178, "\u2581Italien": 3179, "\u2581ADOPTED": 3180, "\u2581IT": 3181, "\u2581riktlinjer": 3182, "\u2581duties": 3183, "\u2581f\u00f6retagen": 3184, "\u2581comments": 3185, "\u2581ability": 3186, "\u2581acts": 3187, "\u2581Such": 3188, "\u2581concluded": 3189, "\u2581City": 3190, "if": 3191, "\u2581described": 3192, "\u2581Authority": 3193, "\u2581k\u00f6r": 3194, "fall": 3195, "31": 3196, "\u2581undertakings": 3197, "\u2581Wait": 3198, "\u2581kultur": 3199, "\u2581Common": 3200, "\u2581sign": 3201, "\u2581bor": 3202, "\u2581Green": 3203, "all": 3204, "\u2581FN": 3205, "\u2581trust": 3206, "\u2581authorised": 3207, "\u2581boy": 3208, "\u2581seems": 3209, "\u2581speed": 3210, "\u2581Produkt": 3211, "\u2581Those": 3212, "\u2581High": 3213, "\u2581t\u00e4nkte": 3214, "\u2581Security": 3215, "\u2581tomorrow": 3216, "\u2581applicant": 3217, "\u2581Air": 3218, "atistikcentralen": 3219, "off": 3220, "\u2581independent": 3221, "gar": 3222, "\u2581Any": 3223, "\u2581Sea": 3224, "\u2581Centre": 3225, "\u2581Protocol": 3226, "sch": 3227, "\u2581Take": 3228, "\u2581identified": 3229, "26": 3230, "\u2581rooms": 3231, "\u2581customer": 3232, "\u2581ensuring": 3233, "\u2581beh\u00f6va": 3234, "\u2581quickly": 3235, "\u2581\u00f6kar": 3236, "ny": 3237, "\u2581prepared": 3238, "\u2581unga": 3239, "\u2581decide": 3240, "\u2581software": 3241, "\u2581Use": 3242, "\u2581va": 3243, "\u2581Bara": 3244, "\u2581inne": 3245, "\u2581inf\u00f6ra": 3246, "\u2581Bibeln": 3247, "\u2581l\u00e4mnas": 3248, "\u2581medium": 3249, "\u2581m\u00e4ngd": 3250, "\u2581injection": 3251, "\u2581analys": 3252, "ba": 3253, "ial": 3254, "\u2581\u00e5tminstone": 3255, "\u2581Health": 3256, "\u2581l\u00f6sa": 3257, "\u2581Financial": 3258, "\u2581Act": 3259, "\u2581leading": 3260, "\u2581g\u00e4rna": 3261, "\u2581TO": 3262, "sp": 3263, "\u2581Kontakt": 3264, "\u2581Bi": 3265, "\u2581r\u00e4ttigheterna": 3266, "\u2581al": 3267, "2/": 3268, "\u2581wide": 3269, "\u2581letter": 3270, "\u2581cultural": 3271, "\u2581People": 3272, "\u2581Special": 3273, "\u2581h\u00e4lso": 3274, "\u2581hinder": 3275, "\u2581privat": 3276, "\u2581inbegripet": 3277, "\u2581amounts": 3278, "\u2581reading": 3279, "\u2581webbplats": 3280, "spel": 3281, "int": 3282, "\u2581rent": 3283, "\u2581handlingar": 3284, "\u2581became": 3285, "avtalet": 3286, "ang": 3287, "talet": 3288, "34": 3289, "\u2581natur": 3290, "\u2581structure": 3291, "fin": 3292, "\u2581klar": 3293, "\u2581implemented": 3294, "\u2581practices": 3295, "\u2581!": 3296, "\u2581clinical": 3297, "\u2581fin": 3298, "\u2581L\u00e4gg": 3299, "\u2581physical": 3300, "ng": 3301, "\u2581Finnish": 3302, "\u2581l\u00f6sningar": 3303, "It": 3304, "\u2581fruit": 3305, "\u2581m\u00e5nad": 3306, "\u2581administrativa": 3307, "\u2581unless": 3308, "\u2581fastst\u00e4llande": 3309, "\u2581location": 3310, "\u2581accounts": 3311, "\u2581listen": 3312, "\u2581vessels": 3313, "\u2581kapacitet": 3314, "\u2581sju": 3315, "\u2581income": 3316, "\u2581contracts": 3317, "\u2581klara": 3318, "\u2581writing": 3319, "\u2581built": 3320, "ze": 3321, "\u2581frukt": 3322, "ite": 3323, "\u2581completely": 3324, "ah": 3325, "\u2581betr\u00e4ffande": 3326, "\u2581p\u00e5verka": 3327, "\u2581Lo": 3328, "\u2581watch": 3329, "\u2581naturligtvis": 3330, "\u2581relationship": 3331, "\u2581enjoy": 3332, "\u2581kvinna": 3333, "\u2581submit": 3334, "bil": 3335, "AN": 3336, "\u2581virus": 3337, "\u2581Eller": 3338, "\u2581Ju": 3339, "\u2581bilder": 3340, "\u2581anslutning": 3341, "\u2581affect": 3342, "\u2581kontakta": 3343, "\u2581milj\u00f6n": 3344, "\u2581initial": 3345, "\u2581bas": 3346, "F\u00f6r": 3347, "ino": 3348, "\u2581steel": 3349, "ki": 3350, "\u2581erfarenhet": 3351, "\u2581guess": 3352, "po": 3353, "\u2581black": 3354, "\u2581beror": 3355, "\u2581Ka": 3356, "\u2581Office": 3357, "\u2581separate": 3358, "\u2581sluta": 3359, "ndet": 3360, "ice": 3361, "6/": 3362, "\u2581During": 3363, "\u2581Jerusalem": 3364, "\u2581statement": 3365, "\u2581places": 3366, "\u2581specifika": 3367, "\u2581followed": 3368, "par": 3369, "\u2581\u00f6nskar": 3370, "\u2581Son": 3371, "\u2581Like": 3372, "\u2581kallas": 3373, "\u2581mor": 3374, "\u2581uh": 3375, "\u2581kristna": 3376, "ck": 3377, "\u2581worked": 3378, "27": 3379, "\u2581tillg\u00e5ngar": 3380, "\u2581bygger": 3381, "ep": 3382, "\u2581gett": 3383, "\u2581Li": 3384, "\u00b0": 3385, "ernas": 3386, "\u258142": 3387, "\u2581Ad": 3388, "orna": 3389, "\u2581target": 3390, "5/": 3391, "\u2581spelar": 3392, "\u2581powers": 3393, "\u2581break": 3394, "\u2581principer": 3395, "\u2581factors": 3396, "\u2581Management": 3397, "\u2581steps": 3398, "mail": 3399, "\u2581proceedings": 3400, "systemet": 3401, "\u2581Italy": 3402, "\u2581instructions": 3403, "\u2581build": 3404, "si": 3405, "mat": 3406, "\u2581avsedda": 3407, "\u2581dollar": 3408, "\u2581instead": 3409, "\u2581regular": 3410, "\u2581nyligen": 3411, "\u2581Spain": 3412, "\u2581pratar": 3413, "\u2581committee": 3414, "\u2581ekonomi": 3415, "\u2581Will": 3416, "\u2581resultaten": 3417, "\u2581unders\u00f6kning": 3418, "\u2581reda": 3419, "\u2581expressed": 3420, "f\u00f6retag": 3421, "Q": 3422, "09": 3423, "\u2581networks": 3424, "\u2581electricity": 3425, "\u2581gift": 3426, "ho": 3427, "\u2581kon": 3428, "Re": 3429, "\u2581utskottet": 3430, "\u2581antas": 3431, "\u2581anv\u00e4ndningen": 3432, "\u2581plants": 3433, "\u2581indicated": 3434, "\u2581skapar": 3435, "\u2581k\u00e4rlek": 3436, "ok": 3437, "\u00ae": 3438, "\u2581anledning": 3439, "year": 3440, "\u2581Ca": 3441, "\u2581uppr\u00e4ttandet": 3442, "\u2581l\u00e4mnar": 3443, "\u2581effektiv": 3444, "\u2581student": 3445, "\u2581employees": 3446, "\u2581sant": 3447, "\u2581America": 3448, "\u2581\u00e5ka": 3449, "\u2581utv\u00e4rdering": 3450, "\u2581opening": 3451, "\u2581amendment": 3452, "\u2581News": 3453, "\u2581king": 3454, "\u2581st\u00e5l": 3455, "\u2581Action": 3456, "\u2581floor": 3457, "\u2581visas": 3458, "\u2581IP": 3459, "\u2581tr\u00e4": 3460, "au": 3461, "\u2581samr\u00e5d": 3462, "\u2581obtained": 3463, "\u2581caused": 3464, "\u2581ekonomiskt": 3465, "\u2581equivalent": 3466, "bb": 3467, "li": 3468, "\u2581implement": 3469, "\u2581exakt": 3470, "\u2581draw": 3471, "\u2581civila": 3472, "\u2581beyond": 3473, "tri": 3474, "\u2581ram": 3475, "\u2581Implementing": 3476, "\u2581Art": 3477, "\u2581sikt": 3478, "\u2581record": 3479, "\u2581units": 3480, "\u2581f\u00f6r\u00e4ldrar": 3481, "\u2581utf\u00f6ra": 3482, "\u2581regeringen": 3483, "\u2581ses": 3484, "\u2581akt\u00f6rer": 3485, "sten": 3486, "\u2581court": 3487, "\u2581marknad": 3488, "\u2581pa": 3489, "\u2581properties": 3490, "\u2581running": 3491, "\u2581ordning": 3492, "AT": 3493, "\u2581add": 3494, "\u2581fungera": 3495, "\u2581Product": 3496, "\u2581maintain": 3497, "\u2581story": 3498, "\u2581staden": 3499, "ken": 3500, "\u2581aware": 3501, "\u2581Spanien": 3502, "\u2581intervention": 3503, "\u2581(3)": 3504, "\u258165": 3505, "\u2581facilities": 3506, "att": 3507, "\u2581ship": 3508, "\u2581Un": 3509, "\u25812020": 3510, "\u2581Chapter": 3511, "\u2581st\u00e4lla": 3512, "\u2581kept": 3513, "\u2581ANTAGIT": 3514, "\u2581although": 3515, "\u2581usually": 3516, "\u2581motsvarar": 3517, "\u2581coordination": 3518, "\u2581ert": 3519, "\u2581undertaking": 3520, "\u2581continued": 3521, "\u2581CO": 3522, "\u2581H\u00e5ll": 3523, "\u2581article": 3524, "\u2581learning": 3525, "\u2581reached": 3526, "nd": 3527, "55": 3528, "\u00e5r": 3529, "\u2581kommande": 3530, "IC": 3531, "\u258192": 3532, "\u2581hour": 3533, "\u2581stats": 3534, "\u2581sources": 3535, "\u2581seven": 3536, "\u2581\u00e4ta": 3537, "4/": 3538, "\u2581meetings": 3539, "\u2581bi": 3540, "\u2581domestic": 3541, "\u258198": 3542, "\u2581knows": 3543, "\u2581Minister": 3544, "93": 3545, "je": 3546, "\u2581ljud": 3547, "\u2581efficient": 3548, "6].": 3549, "\u2581m\u00e5len": 3550, "\u2581sanningen": 3551, "\u2581T\u00e4nk": 3552, "\u2581erbjuda": 3553, "\u2581PC": 3554, "\u2581studie": 3555, "\u2581gentlemen": 3556, "33": 3557, "2)": 3558, "\u2581feed": 3559, "\u2581representative": 3560, "02": 3561, "\u2581initiatives": 3562, "ID": 3563, "\u2581kring": 3564, "\u2581\u00d6ver": 3565, "\u2581FOR": 3566, "\u2581machine": 3567, "\u2581st\u00e5ndpunkt": 3568, "\u2581stad": 3569, "\u2581r\u00f6ster": 3570, "\u2581d\u00e4refter": 3571, "nar": 3572, "\u2581otherwise": 3573, "\u2581551": 3574, "\u2581Africa": 3575, "\u2581statligt": 3576, "\u2581r\u00e4dda": 3577, "\u2581platser": 3578, "\u2581clean": 3579, "\u2581box": 3580, "\u2581v\u00e4nta": 3581, "\u2581sleep": 3582, "\u2581bidrar": 3583, "\u2581permanent": 3584, "\u2581Only": 3585, "\u2581offentlig": 3586, "\u2581store": 3587, "\u2581EN": 3588, "\u2581Debian": 3589, "\u2581Te": 3590, "\u2581placed": 3591, "\u2581operational": 3592, "\u2581traffic": 3593, "\u2581kombination": 3594, "\u2581Members": 3595, "\u2581integrated": 3596, "\u2581allm\u00e4n": 3597, "han": 3598, "\u2581affected": 3599, "\u2581anv\u00e4ndare": 3600, "\u2581gets": 3601, "\u2581tried": 3602, "gi": 3603, "\u2581port": 3604, "\u2581resa": 3605, "\u2581difference": 3606, "\u2581utnyttja": 3607, "\u2581nummer": 3608, "\u2581trans": 3609, "\u2581changed": 3610, "\u2581Ro": 3611, "\u2581challenges": 3612, "\u2581R\u00e5dets": 3613, "od": 3614, "lag": 3615, "\u2581kriterier": 3616, "\u2581eye": 3617, "\u2581internationell": 3618, "\u2581registered": 3619, "\u2581manner": 3620, "\u2581commitment": 3621, "\u2581feeling": 3622, "\u2581Communication": 3623, "\u258100": 3624, "\u2581v\u00e4rldens": 3625, "\u25811:": 3626, "\u2581Affairs": 3627, "38": 3628, "\u2581\u0301": 3629, "\u2581Display": 3630, "\u2581havet": 3631, "\u2581n\u00e4tverk": 3632, "\u2581release": 3633, "!\"": 3634, "\u2581sites": 3635, "\u2581legislative": 3636, "\u2581Sen": 3637, "\u2581starting": 3638, "\u2581prov": 3639, "\u2581numbers": 3640, "\u2581Justice": 3641, "her": 3642, "\u2581engelska": 3643, "98": 3644, "\u2581meat": 3645, "\u2581r\u00f6st": 3646, "\u2581contain": 3647, "En": 3648, "\u2581files": 3649, "ica": 3650, "\u2581fria": 3651, "\u2581Red": 3652, "\u2581extension": 3653, "\u2581accepted": 3654, "\u2581utsl\u00e4pp": 3655, "\u2581l\u00e4mplig": 3656, "politiken": 3657, "\u2581sometimes": 3658, "\u2581samarbetet": 3659, "g\u00e5ng": 3660, "BAR": 3661, "\u2581planning": 3662, "\u258144": 3663, "\u2581m\u00e4nniska": 3664, "\u2581certificate": 3665, "\u2581highly": 3666, "\u2581collection": 3667, "\u2581options": 3668, "\u2581limits": 3669, "04": 3670, "\u2581f\u00f6rs\u00f6k": 3671, "\u2581surface": 3672, "\u2581h\u00f6rde": 3673, "\u2581tools": 3674, "\u2581ma": 3675, "36": 3676, "\u2581Ryssland": 3677, "\u2581enterprises": 3678, "\u2581v\u00e4ntar": 3679, "\u2581vision": 3680, "\u2581skull": 3681, "\u2581Visst": 3682, "\u2581faith": 3683, "\u2581option": 3684, "3/": 3685, "\u2581alls": 3686, "gruppen": 3687, "\u2581f\u00f6retags": 3688, "\u2581holder": 3689, "\u2581bes\u00f6k": 3690, "\u2581samordning": 3691, "\u2581punkterna": 3692, "\u2581ungef\u00e4r": 3693, "\u2581write": 3694, "day": 3695, "\u2581Most": 3696, "\u258196": 3697, "(2)": 3698, "\u2581Su": 3699, "We": 3700, "hus": 3701, "\u2581double": 3702, "\u2581Two": 3703, "\u2581unique": 3704, "\u2581community": 3705, "\u2581parterna": 3706, "\u2581element": 3707, "\u2581components": 3708, "\u2581ungdomar": 3709, "\u2581161": 3710, "\u2581staterna": 3711, "92": 3712, "\u2581felt": 3713, "\u2581card": 3714, "\u2581r\u00e4dd": 3715, "\u2581h\u00f6rt": 3716, "za": 3717, "\u2581tacka": 3718, "\u2581Max": 3719, "uk": 3720, "\u2581ers\u00e4ttning": 3721, "\u2581makt": 3722, "\u2581enhet": 3723, "ach": 3724, "\u2581tonight": 3725, "\u2581maintenance": 3726, "\u2581centrum": 3727, "\u2581couldn": 3728, "\u2581advice": 3729, "\u2581While": 3730, "\u2581\u00f6vergripande": 3731, "\u258143": 3732, "\u2581ben": 3733, "\u2581brand": 3734, "\u2581l\u00e4gger": 3735, "\u00a5": 3736, "\u2581pension": 3737, "\u2581Kanske": 3738, "46": 3739, "ri": 3740, "\u2581te": 3741, "\u2581ensam": 3742, "\u2581franska": 3743, "rit": 3744, "\u2581aff\u00e4rs": 3745, "44": 3746, "\u2581handels": 3747, "\u2581allvarliga": 3748, "\u25816,": 3749, "IN": 3750, "p\u00e5": 3751, "\u2581Tre": 3752, "les": 3753, "\u258151": 3754, "\u2581American": 3755, "\u2581Casino": 3756, "\u2581b\u00e4r": 3757, "\u2581tasks": 3758, "\u2581Many": 3759, "\u2581kostnaderna": 3760, "\u2581businesses": 3761, "\u2581certainly": 3762, "\u2581utgifter": 3763, "\u2581redo": 3764, "\u2581grant": 3765, "\u2581Pe": 3766, "\u2581Japan": 3767, "\u2581Before": 3768, "\u2581hj\u00e4rta": 3769, "\u2581bet\u00e4nkandet": 3770, "sion": 3771, "\u2581huruvida": 3772, "85": 3773, "49": 3774, "\u2581f\u00f6rs\u00f6kte": 3775, "\u2581jord": 3776, "\u2581practical": 3777, "ong": 3778, "\u2581exposure": 3779, "\u2581modell": 3780, "\u2581medicine": 3781, "\u2581couple": 3782, "2.": 3783, "\u2581Energy": 3784, "\u2581items": 3785, "\u2581arbetstagare": 3786, "\u2581\u00b0": 3787, "\u2581link": 3788, "\u2581holding": 3789, "let": 3790, "\u2581approximately": 3791, "\u2581fresh": 3792, "\u2581conclusion": 3793, "\u2581nytta": 3794, "\u2581beviljas": 3795, "\u2581lines": 3796, "\u2581expert": 3797, "\u2581skills": 3798, "\u00b6": 3799, "\u2581inneh\u00e5lla": 3800, "\u2581damage": 3801, "f\u00f6rordning": 3802, "\u2581Furthermore": 3803, "\u2581Ireland": 3804, "\u2581Gu": 3805, "programmet": 3806, "ala": 3807, "39": 3808, "l\u00e4": 3809, "\u2581F\u00f6ljande": 3810, "\u25812:": 3811, "\u2581features": 3812, "ud": 3813, "\u2581supposed": 3814, "\u2581negative": 3815, "\u2581Her": 3816, "ab": 3817, "ip": 3818, "band": 3819, "\u2581lagstiftningen": 3820, "\u2581resultatet": 3821, "mor": 3822, "\u2581plus": 3823, "\u2581fuel": 3824, "\u2581conclusions": 3825, "\u2581biverkningar": 3826, "\u2581risken": 3827, "10.": 3828, "\u2581historia": 3829, "\u2581lokal": 3830, "\u2581regioner": 3831, "\u2581h\u00e5r": 3832, "\u2581kallade": 3833, "\u2581COMMISSION": 3834, "\u2581stanna": 3835, "CO": 3836, "\u2581Inom": 3837, "bara": 3838, "\u2581Er": 3839, "\u2581k\u00e4nde": 3840, "\u2581s\u00f6ker": 3841, "\u2581myndighet": 3842, "\u2581planet": 3843, "\u2581f\u00f6ruts\u00e4ttning": 3844, "\u2581domstolen": 3845, "\u2581Finally": 3846, "use": 3847, "\u2581popular": 3848, "\u2581ingenting": 3849, "\u2581Amsterdam": 3850, "\u2581manufacturer": 3851, "37": 3852, "\u2581produce": 3853, "\u2581military": 3854, "\u2581stress": 3855, "1,": 3856, "\u2581observed": 3857, "\u2581reporting": 3858, "\u25811990": 3859, "end": 3860, "way": 3861, "\u2581Support": 3862, "press": 3863, "\u2581Ab": 3864, "\u2581musik": 3865, "\u2581oavsett": 3866, "vid": 3867, "\u2581f\u00f6resl\u00e5r": 3868, "(1)": 3869, "\u2581completed": 3870, "\u2581determine": 3871, "tu": 3872, "\u2581\u266a": 3873, "\u2581tryck": 3874, "\u2581d\u00f6": 3875, "\u2581$": 3876, "\u2581religion": 3877, "\u00e5": 3878, "41": 3879, "\u00e4l": 3880, "\u2581l\u00e4r": 3881, "\u2581pool": 3882, "\u2581faktum": 3883, "\u2581institutioner": 3884, "97": 3885, "\u2581Media": 3886, "\u2581h\u00e4nvisning": 3887, "\u258193": 3888, "ps": 3889, "erat": 3890, "\u2581remains": 3891, "\u2581stated": 3892, "\u2581net": 3893, "\u2581arbetsmarknaden": 3894, "\u2581y": 3895, "-10": 3896, "\u2581Ho": 3897, "ure": 3898, "\u2581tillverkare": 3899, "\u2581alltf\u00f6r": 3900, "\u2581exempelvis": 3901, "\u2581requested": 3902, "\u2581Vilka": 3903, "\u2581considers": 3904, "\u2581bl": 3905, "\u2581King": 3906, "\u2581easily": 3907, "\u2581referens": 3908, "\u2581perfekt": 3909, "\u2581supported": 3910, "\u2581Russia": 3911, "68": 3912, "\u2581shopping": 3913, "\u258155": 3914, "\u2581conduct": 3915, "\u2581\u00e5rliga": 3916, "ities": 3917, "\u2581representatives": 3918, "\u2581obligation": 3919, "\u2581category": 3920, "\u25811992": 3921, "\u2581mainly": 3922, "\u2581Tri": 3923, "\u2581image": 3924, "gel": 3925, "\u2581l\u00e5n": 3926, "\u2581Ri": 3927, "\u2581smart": 3928, "\u2581\u00f6verens": 3929, "\u2581luft": 3930, "\u2581seem": 3931, "\u2581avfall": 3932, "\u2581v\u00e4rld": 3933, "\u2581risker": 3934, "\u2581tal": 3935, "\u2581bist\u00e5nd": 3936, "\u2581\u00d6": 3937, "\u2581culture": 3938, "\u2581metod": 3939, "\u2581Nya": 3940, "\u2581tests": 3941, "\u2581stuff": 3942, "TM": 3943, "\u2581infrastruktur": 3944, "\u2581percentage": 3945, "\u2581Tv\u00e5": 3946, "verk": 3947, "\u2581shares": 3948, "\u2581Although": 3949, "\u2581400": 3950, "\u2581Mot": 3951, "\u2581f\u00f6rm\u00e5n": 3952, "\u2581mobile": 3953, "\u2581m\u00e5r": 3954, "\u25818,": 3955, "\u2581dialog": 3956, "\u2581categories": 3957, "\u2581app": 3958, "\u2581corresponding": 3959, "\u2581Trots": 3960, "ised": 3961, "\u2581van": 3962, "\u2581Done": 3963, "kom": 3964, "96": 3965, "bit": 3966, "\u2581baserat": 3967, "ker": 3968, "\u2581k\u00f6tt": 3969, "\u2581kol": 3970, "\u2581description": 3971, "\u00e4": 3972, "\u2581kids": 3973, "\u2581partnerskap": 3974, "\u2581tj\u00e4nste": 3975, "\u2581problemet": 3976, "\u2581thanks": 3977, "03": 3978, "\u2581improving": 3979, "\u2581Hall\u00e5": 3980, "\u2581Listen": 3981, "51": 3982, "\u2581applies": 3983, "\u2581nuclear": 3984, "\u2581Ko": 3985, "\u2581round": 3986, "\u2581War": 3987, "qui": 3988, "fer": 3989, "\u2581tillh\u00f6r": 3990, "\u2581titta": 3991, "\u2581Barcelona": 3992, "\u2581h\u00e4rifr\u00e5n": 3993, "\u2581fear": 3994, "\u2581v\u00e5ld": 3995, "\u2581bok": 3996, "\u2581Spanish": 3997, "\u2581addressed": 3998, "\u2581eleven": 3999, "\u2581framtid": 4000, "\u2581introduced": 4001, "\u2581n\u00e4t": 4002, "\u2581OK": 4003, "\u2581Market": 4004, "cy": 4005, "nedan": 4006, "\u2581Uh": 4007, "\u2581semester": 4008, "ins": 4009, "\u2581articles": 4010, "\u2581kunnat": 4011, "\u2581failure": 4012, "sprogram": 4013, "\u2581Urs\u00e4kta": 4014, "\u2581success": 4015, "\u2581whatever": 4016, "\u2581views": 4017, "\u2581CD": 4018, "-1": 4019, "\u2581Gratis": 4020, "\u2581recommendations": 4021, "lor": 4022, "\u2581inneh\u00e5llet": 4023, "skydd": 4024, "\u2581029": 4025, "\u2581Presidency": 4026, "\u2581technologies": 4027, "\u2581consultation": 4028, "\u2581closed": 4029, "\u2581reglerna": 4030, "\u2581Fri": 4031, "\u2581understanding": 4032, "\u2581yttrandet": 4033, "\u2581levande": 4034, "\u2581lagen": 4035, "\u2581Tu": 4036, "\u2581skolan": 4037, "eri": 4038, "\u25811993": 4039, "\u2581border": 4040, "\u2581Nordic": 4041, "\u2581stark": 4042, "\u2581slags": 4043, "\u2581uppgifterna": 4044, "ris": 4045, "\u2581Euratom": 4046, "\u2581placebo": 4047, "\u2581uppmanar": 4048, "MP": 4049, "\u2581HERREN": 4050, "\u2581crime": 4051, "\u2581playing": 4052, "\u25811.1": 4053, "\u2581delivery": 4054, "\u2581accommodation": 4055, "don": 4056, "\u2581Cor": 4057, "ez": 4058, "\u2581degree": 4059, "\u2581North": 4060, "TA": 4061, "\u2581ledam\u00f6ter": 4062, "que": 4063, "\u2581Republiken": 4064, "\u2581effektiva": 4065, "\u2581fastst\u00e4llts": 4066, "\u2581sort": 4067, "\u2581stability": 4068, "sol": 4069, "\u2581F\u00e5r": 4070, "ros": 4071, "3,": 4072, "\u2581actual": 4073, "\u2581skicka": 4074, "\u2581\u00f6verf\u00f6ring": 4075, "\u2581green": 4076, "isering": 4077, "\u2581l\u00e4mnade": 4078, "US": 4079, "\u25811).": 4080, "\u2581f\u00f6reg\u00e5ende": 4081, "\u2581allows": 4082, "\u2581excellent": 4083, "\u2581h\u00f6gt": 4084, "\u2581entered": 4085, "\u2581earlier": 4086, "\u2581husband": 4087, "s\u00e4ttning": 4088, "\u2581introduction": 4089, "\u2581[1]": 4090, "\u2581mj\u00f6lk": 4091, "\u2581j\u00e4vla": 4092, "\u2581m\u00f6jligheten": 4093, "\u2581v\u00e4rme": 4094, "s\u00e5tg\u00e4rder": 4095, "\u2581informed": 4096, "\u2581sport": 4097, "\u2581allm\u00e4nt": 4098, "\u2581detaljer": 4099, "\u2581registrering": 4100, "\u2581Great": 4101, "\u2581Lisbon": 4102, "\u2581Booking": 4103, "\u2581korrekt": 4104, "\u2581(\"": 4105, "\u2581eder": 4106, "\u2581Hj\u00e4lp": 4107, "\u2581bek\u00e4mpa": 4108, "\u2581globala": 4109, "\u2581SMEs": 4110, "pan": 4111, "ou": 4112, "FR": 4113, "\u2581survey": 4114, "\u2581notes": 4115, "\u2581Services": 4116, "\u2581glass": 4117, "\u2581generation": 4118, "\u2581players": 4119, "\u2581examination": 4120, "\u2581indeed": 4121, "48": 4122, "tt": 4123, "ax": 4124, "94": 4125, "\u2581Sn\u00e4lla": 4126, "\u2581recently": 4127, "ram": 4128, "\u2581presentation": 4129, "\u2581r\u00e4tten": 4130, "\u2581datum": 4131, "\u2581processes": 4132, "\u2581proportion": 4133, "\u2581Hello": 4134, "\u2581vetenskapliga": 4135, "\u2581gr\u00e4ns\u00f6verskrid": 4136, "\u2581passar": 4137, "\u2581summer": 4138, "che": 4139, "\u2581lager": 4140, "\u2581drag": 4141, "\u2581improved": 4142, "\u2581station": 4143, "\u2581languages": 4144, "\u2581drawn": 4145, "ST": 4146, "stad": 4147, "ful": 4148, "\u2581leverans": 4149, "\u2581utbyte": 4150, "\u2581synpunkter": 4151, "\u2581\u00e4ndam\u00e5l": 4152, "\u2581therapy": 4153, "\u2581Greece": 4154, "\u2581Hi": 4155, "\u2581f\u00f6rh\u00e5llanden": 4156, "\u2581info": 4157, "\u2581offered": 4158, "\u2581resulting": 4159, "ec": 4160, "\u2581lose": 4161, "\u2581rise": 4162, "\u2581effort": 4163, "\u2581White": 4164, "\u2581handeln": 4165, "\u2581ren": 4166, "marknaden": 4167, "\u2581growing": 4168, "\u2581f\u00f6reskrifter": 4169, "\u2581heading": 4170, "\u2581driver": 4171, "fri": 4172, "\u2581arm": 4173, "\u2581ladies": 4174, "\u2581(1": 4175, "\u2581Anv\u00e4nd": 4176, "\u2581signal": 4177, "\u2581declaration": 4178, "Tabellbilaga": 4179, "\u2581serve": 4180, "2011": 4181, "\u2581Europas": 4182, "\u2581lagar": 4183, "\u2581presence": 4184, "ssystemet": 4185, "\u2581picture": 4186, "\u2581devices": 4187, "\u2581F\u00f6renade": 4188, "\u2581finally": 4189, "/4": 4190, "\u2581super": 4191, "oc": 4192, "\u2581oral": 4193, "\u2581worry": 4194, "\u25812005.": 4195, "\u2581trend": 4196, "\u2581consideration": 4197, "\u2581priorities": 4198, "\u2581complex": 4199, "\u2581Back": 4200, "\u2581afraid": 4201, "\u2581ursprungliga": 4202, "\u2581facilitate": 4203, "\u2581drug": 4204, "\u2581n\u00e5gonsin": 4205, "\u2581sam": 4206, "\u2581Stop": 4207, "\u2581rapporten": 4208, "\u2581began": 4209, "\u2581#": 4210, "\u2581opened": 4211, "\u2581ange": 4212, "mark": 4213, "\u2581tyska": 4214, "\u2581Ny": 4215, "\u2581sammanhang": 4216, "ord": 4217, "met": 4218, "\u2581direction": 4219, "\u2581\u00f6ppen": 4220, "\u2581symptoms": 4221, "\u2581successful": 4222, "\u2581hittade": 4223, "\u2581v\u00e4nster": 4224, "tion": 4225, "\u2581transparency": 4226, "\u2581stod": 4227, "\u2581ledsen": 4228, "\u2581Tom": 4229, "\u2581waiting": 4230, "IP": 4231, "lu": 4232, "\u2581l\u00e4ggas": 4233, "\u2581utvecklas": 4234, "lighet": 4235, "\u2581snabb": 4236, "\u2581klarar": 4237, "\u2581Very": 4238, "TER": 4239, "\u2581\u00f6kning": 4240, "\u2581f\u00f6retr\u00e4dare": 4241, "ph": 4242, "\u2581Total": 4243, "port": 4244, "\u2581politisk": 4245, "\u2581r\u00f6rlighet": 4246, "\u2581Communities": 4247, "\u2581(4)": 4248, "\u2581schemes": 4249, "\u2581linje": 4250, "nes": 4251, "bra": 4252, "11.": 4253, "\u2581upplysningar": 4254, "\u2581monitor": 4255, "\u2581signed": 4256, "sam": 4257, "\u2581Jack": 4258, "ock": 4259, "km": 4260, "\u2581Moreover": 4261, "\u2581Table": 4262, "\u2581structural": 4263, "\u2581Facebook": 4264, "\u2581temperature": 4265, "\u2581valid": 4266, "\u2581le": 4267, "\u2581recognition": 4268, "\u2581Today": 4269, "\u2581\u00f6kat": 4270, "\u2581Human": 4271, "ill": 4272, "\u2581raised": 4273, "\u258109": 4274, "\u2581task": 4275, "\u2581Business": 4276, "\u2581quarter": 4277, "7.": 4278, "\u2581Val": 4279, "\u2581functions": 4280, "\u2581Sign": 4281, "\u2581Food": 4282, "str\u00f6m": 4283, "\u2581Allah": 4284, "\u2581notification": 4285, "\u2581registration": 4286, "\u2581r\u00f6rande": 4287, "\u2581sun": 4288, "\u258184": 4289, "\u2581West": 4290, "my": 4291, "ide": 4292, "\u2581genomf\u00f6ras": 4293, "\u2581suitable": 4294, "\u2581Mina": 4295, "\u2581till\u00e4gg": 4296, "\u2581lilla": 4297, "\u2581forget": 4298, "\u2581chef": 4299, "\u2581encourage": 4300, "\u258146": 4301, "\u2581Berlin": 4302, "\u2581faktorer": 4303, "ov": 4304, "\u2581proper": 4305, "\u2581antar": 4306, "\u2581speciellt": 4307, "\u2581agenda": 4308, "\u25812.1": 4309, "\u2581kitchen": 4310, "\u2581cells": 4311, "\u2581daughter": 4312, "\u2581fort": 4313, "OR": 4314, "\u2581dangerous": 4315, "\u2581skyldigheter": 4316, "\u2581severe": 4317, "kort": 4318, "rna": 4319, "\u2581dotter": 4320, "\u2581mine": 4321, "\u2581f\u00f6rm\u00e5ga": 4322, "\u2581length": 4323, "88": 4324, "\u2581forskare": 4325, "\u2581tri": 4326, "\u2581konst": 4327, "\u2581cash": 4328, "1999": 4329, "\u2581sold": 4330, "\u2581applying": 4331, "\u2581operator": 4332, "\u2581minute": 4333, "\u2581characteristics": 4334, "\u2581cold": 4335, "\u2581looks": 4336, "\u2581Ty": 4337, "65": 4338, "\u2581heat": 4339, "\u2581OJ": 4340, "fr\u00e5gor": 4341, "\u2581helhet": 4342, "\u2581sp\u00e5r": 4343, "\u2581f\u00f6rra": 4344, "\u2581kompetens": 4345, "\u2581useful": 4346, "\u2581debt": 4347, "\u258147": 4348, "08": 4349, "\u2581storlek": 4350, "\u2581v\u00e4lkomnar": 4351, "\u2581Ma": 4352, "\u2581dags": 4353, "\u2581prejudice": 4354, "\u25811000": 4355, "\")": 4356, "-4": 4357, "har": 4358, "\u2581inl\u00e4gg": 4359, "\u2581hurt": 4360, "Ja": 4361, "\u2581center": 4362, "\u00fc": 4363, "\u2581item": 4364, "\u2581developments": 4365, "\u2581politiken": 4366, "\u2581yttre": 4367, "\u2581Vissa": 4368, "\u2581wood": 4369, "\u2581UK": 4370, "\u2581v\u00e5rd": 4371, "\u2581tool": 4372, "\u2581WTO": 4373, "\u258172": 4374, "\u2581[2]": 4375, "\u258152": 4376, "ham": 4377, "\u2581Mark": 4378, "\u2581begin": 4379, "\u2581bruk": 4380, "\u2581skrev": 4381, "\u25811.2": 4382, "\u2581notified": 4383, "\u2581voice": 4384, "rad": 4385, "66": 4386, "\u2581accession": 4387, "\u2581investments": 4388, "\u2581Last": 4389, "\u2581Ser": 4390, "\u2581familjen": 4391, "\u2581Miss": 4392, "\u2581distance": 4393, "\u2581regering": 4394, "bet": 4395, "\u2581ain": 4396, "\u2581email": 4397, "\u2581tredjel\u00e4nder": 4398, "\u25813.1": 4399, "\u2581fat": 4400, "\u2581extremely": 4401, "\u2581kul": 4402, "\u2581alternative": 4403, "\u2581Italian": 4404, "\u2581Keep": 4405, "\u2581V\u00e5ra": 4406, "\u2581moving": 4407, "\u2581\u00c5r": 4408, "ap": 4409, "ff": 4410, "\u2581machines": 4411, "\u2581totalt": 4412, "\u2581verksamheten": 4413, "lon": 4414, "\u2581strengthen": 4415, "\u2581glas": 4416, "\u2581touch": 4417, "\u2581kontroller": 4418, "\u2581dimension": 4419, "\u2581k\u00e4nns": 4420, "\u2581differences": 4421, "\u25817,": 4422, "\u2581calculated": 4423, "\u2581died": 4424, "rar": 4425, "\u2581kommunikation": 4426, "\u2581webbplatsen": 4427, "\u2581Pi": 4428, "\u2581girls": 4429, "st\u00e4ll": 4430, "\u2581ISSN": 4431, "\u2581click": 4432, "\u2581match": 4433, "43": 4434, "\u2581m\u00e5": 4435, "\u2581adequate": 4436, "\u258141": 4437, "\u25813:": 4438, "\u2581sit": 4439, "art": 4440, "\u2581engine": 4441, "\u2581preparation": 4442, "\u2581trafik": 4443, "ack": 4444, "\u2581quantities": 4445, "\u2581producer": 4446, "\u2581s\u00e4ttet": 4447, "\u2581boende": 4448, "\u2581waters": 4449, "\u2581andel": 4450, "\u2581worth": 4451, "\u2581hud": 4452, "\u2581positiva": 4453, "\u2581yeah": 4454, "iz": 4455, "\u2581selected": 4456, "\u2581antogs": 4457, "\u2581interesting": 4458, "\u2581po\u00e4ng": 4459, "\u2581utg\u00f6ra": 4460, "\u2581socker": 4461, "\u25812006.": 4462, "\u2581turned": 4463, "dd": 4464, "06": 4465, "\u2581destination": 4466, "\u2581generally": 4467, "s\u00e4kerhet": 4468, "\u2581forsknings": 4469, "\u2581linked": 4470, "\u2581perhaps": 4471, "\u2581s\u00e5ledes": 4472, "\u2581medicines": 4473, "\u2581tillf\u00e4lle": 4474, "\u2581fields": 4475, "\u2581ring": 4476, "\u2581poor": 4477, "\u2581argument": 4478, "\u2581reactions": 4479, "\u2581Father": 4480, "\u2581Open": 4481, "heten": 4482, "\u2581behandla": 4483, "lip": 4484, "\u2581requirement": 4485, "\u2581allm\u00e4nheten": 4486, "\u2581participate": 4487, "\u2581parking": 4488, "\u2581krig": 4489, "\u2581sp": 4490, "\u2581delvis": 4491, "\u2581Park": 4492, "\u25812010.": 4493, "\u2581\u00e4mne": 4494, "\u2581individuals": 4495, "DA": 4496, "\u2581pick": 4497, "\u2581Post": 4498, "\u2581noted": 4499, "\u2581eligible": 4500, "\u2581plasma": 4501, "\u2581personuppgifter": 4502, "\u2581unions": 4503, "dis": 4504, "\u2581LORD": 4505, "\u2581verk": 4506, "kt": 4507, "\u2581apartment": 4508, "tur": 4509, "\u2581advantage": 4510, "\u2581Grekland": 4511, "\u2581discussion": 4512, "\u2581minskade": 4513, "\u2581criminal": 4514, "gu": 4515, "\u2581ekonomin": 4516, "utveckling": 4517, "\u2581Up": 4518, "\u2581flygplats": 4519, "\u2581gruppen": 4520, "\u2581organisationen": 4521, "\u2581fysiska": 4522, "\u2581correct": 4523, "\u2581pen": 4524, "\u2581Help": 4525, "nad": 4526, "\u00e1": 4527, "l\u00f6s": 4528, "\u2581--": 4529, "\u2581budgetary": 4530, "\u2581bilen": 4531, "\u2581Online": 4532, "ized": 4533, "\u2581Pa": 4534, "\u2581Lu": 4535, "\u2581comprehensive": 4536, "\u2581Association": 4537, "\u2581recovery": 4538, "\u2581genomf\u00f6rs": 4539, "\u2581competitiveness": 4540, "NA": 4541, "\u2581principen": 4542, "\u2581f\u00f6rteckning": 4543, "\u2581fram\u00e5t": 4544, "\u2581Chinese": 4545, "\u2581s\u00f6ka": 4546, "sektorn": 4547, "\u2581secure": 4548, "\u2581promoting": 4549, "\u2581Sluta": 4550, "\u2581Inget": 4551, "\u2581da": 4552, "\u2581Fru": 4553, "plan": 4554, "\u2581klass": 4555, "\u2581saknas": 4556, "IS": 4557, "ions": 4558, "\u2581huset": 4559, "\u2581vidtas": 4560, "\u2581COM": 4561, "\u2581creating": 4562, "\u2581veckan": 4563, "\u2581primary": 4564, "\u2581aspekter": 4565, "\u2581debatt": 4566, "\u2581phase": 4567, "\u2581aktiva": 4568, "\u2581competitive": 4569, "ben": 4570, "\u2581Logga": 4571, "\u2581funktioner": 4572, "\u2581aimed": 4573, "yn": 4574, "\u2581uppm\u00e4rksamhet": 4575, "\u2581fisheries": 4576, "\u2581vore": 4577, "\u2581hotels": 4578, "\u2581Kon": 4579, "\u2581index": 4580, "\u2581acid": 4581, "\u2581Paper": 4582, "\u2581Code": 4583, "\u2581sammanh\u00e5llning": 4584, "\u2581Hem": 4585, "medel": 4586, "\u2581exceeding": 4587, "\u2581ahead": 4588, "\u2581helps": 4589, "\u00f6m": 4590, "\u2581Frank": 4591, "border": 4592, "\u2581pengarna": 4593, "mp": 4594, "\u2581banks": 4595, "\u258101": 4596, "\u258149": 4597, "\u2581Transport": 4598, "\u2581fred": 4599, "\u00c4": 4600, "\u2581terrorism": 4601, "\u2581largest": 4602, "tik": 4603, "\u2581yes": 4604, "kor": 4605, "\u2581ro": 4606, "\u2581sol": 4607, "\u2581Witnesses": 4608, "\u2581revision": 4609, "including": 4610, "\u2581seek": 4611, "\u2581sl\u00e5": 4612, "\u2581concept": 4613, ".2": 4614, "\u2581beach": 4615, "wi": 4616, "\u2581Mycket": 4617, "fl": 4618, "\u2581skola": 4619, "\u2581sjukdomar": 4620, "\u2581deltar": 4621, "\u2581regelbundet": 4622, "\u2581staten": 4623, "\u2581karta": 4624, "\u2581selection": 4625, "\u2581kund": 4626, "\u2581influence": 4627, "\u2581neither": 4628, "\u2581finna": 4629, "\u2581h\u00e5ll": 4630, "................": 4631, "\u258153": 4632, "over": 4633, "\u2581princip": 4634, "\u2581maskiner": 4635, "\u2581exist": 4636, "free": 4637, "\u2581projektet": 4638, "\u2581600": 4639, "\u2581Sir": 4640, "\u2581vuxna": 4641, "\u2581herrar": 4642, "uff": 4643, "\u2581dry": 4644, "\u2581appear": 4645, "\u2581Turkiet": 4646, "\u2581uttryck": 4647, "\u2581s\u00e4tter": 4648, "\u2581born": 4649, "\u2581Add": 4650, "\u258197": 4651, "\u258156": 4652, "2002": 4653, "\u2581mission": 4654, "\u2581remove": 4655, "European": 4656, "\u2581guide": 4657, "\u2581controls": 4658, "\u2581goal": 4659, "ations": 4660, "\u2581conference": 4661, "\u2581imp": 4662, "\u25812008.": 4663, "nen": 4664, "\u2581Work": 4665, "log": 4666, "\u2581Turkey": 4667, "tel": 4668, "\u2581Hostels": 4669, "ls": 4670, "\u2581f\u00f6rut": 4671, "\u2581beh\u00f6righet": 4672, "\u25812007.": 4673, "\u2581Conference": 4674, "\u2581train": 4675, "\u2581aims": 4676, "\u2581contained": 4677, "\u2581uppn\u00e5s": 4678, "\u2581cool": 4679, "hem": 4680, "\u2581expect": 4681, "AD": 4682, "\u2581democracy": 4683, "\u2581unders\u00f6ka": 4684, "\u2581traditional": 4685, "\u2581h\u00f6ger": 4686, "\u2581minskning": 4687, "\u2581committed": 4688, "\u2581association": 4689, "\u2581factor": 4690, "\u2581supporting": 4691, "\u2581strength": 4692, "\u2581Madam": 4693, "\u2581exceed": 4694, "\u2581teknisk": 4695, "\u2581fullst\u00e4ndigt": 4696, "\u2581\u00e4ndrad": 4697, "\u2581identify": 4698, "\u2581niv\u00e5er": 4699, "\u2581highest": 4700, "\u2581territorium": 4701, "\u2581claim": 4702, "act": 4703, "\u2581Martin": 4704, "\u2581utarbeta": 4705, "\u2581upphandling": 4706, "\u2581rekommenderar": 4707, "\u2581vittnen": 4708, "\u2581kid": 4709, "\u2581temporary": 4710, "\u2581h\u00f6ll": 4711, "\u2581dark": 4712, "\u2581firm": 4713, "\u2581helvete": 4714, "risk": 4715, "\u2581kroppen": 4716, "\u2581informations": 4717, "\u2581chat": 4718, "ana": 4719, "47": 4720, "\u2581poly": 4721, "\u2581evening": 4722, "vers": 4723, "\u2581utifr\u00e5n": 4724, "fa": 4725, "\u2581\u00c5": 4726, "\u2581violence": 4727, "ister": 4728, "\u2581Would": 4729, "\u2581pilot": 4730, "\u2581polis": 4731, "\u2581Suite": 4732, "\u2581mouth": 4733, "erande": 4734, "\u2581Find": 4735, "\u2581sell": 4736, "\u2581v\u00e4ljer": 4737, "\u2581session": 4738, "\u2581Russian": 4739, "\u2581delivered": 4740, "\u2581entitled": 4741, "\u2581track": 4742, "\u2581folket": 4743, "\u2581Life": 4744, "\u2581receiving": 4745, "\u2581yrkes": 4746, "\u2581doubt": 4747, "\u2581driving": 4748, "kin": 4749, "/5": 4750, "\u2581halv": 4751, "ization": 4752, "\u2581Daniel": 4753, "gas": 4754, "\u2581consequences": 4755, "\u2581f\u00f6rklara": 4756, "\u2581tillsyn": 4757, "2010": 4758, "\u2581thou": 4759, "\u2581East": 4760, "\u2581befinner": 4761, "\u2581Dan": 4762, "\u2581Black": 4763, "\u2581Ver": 4764, "-12": 4765, "det": 4766, "1)": 4767, "\u2581Customer": 4768, "\u2581anpassa": 4769, "\u2581kommission": 4770, "1.": 4771, "\u2581bear": 4772, "\u2581h\u00e4nt": 4773, "Tror": 4774, "\u2581scale": 4775, "\u2581DE": 4776, "\u2581REGULATION": 4777, "\u2581drog": 4778, "\u2581unemployment": 4779, "SA": 4780, "\u2581experts": 4781, "\u2581misstag": 4782, "\u2581happens": 4783, "\u2581piece": 4784, "\u2581drar": 4785, "\u2581missing": 4786, "\u2581Com": 4787, "\u2581View": 4788, "\u2581kliniska": 4789, "\u2581Public": 4790, "\u2581Utan": 4791, "\u2581bed\u00f6ma": 4792, "\u2581availability": 4793, "\u2581effectively": 4794, "\u2581Mac": 4795, "\u2581Skip": 4796, "\u2581anst\u00e4llning": 4797, "\u2581flow": 4798, "\u2581Land": 4799, "\u2581union": 4800, "\u2581Day": 4801, "\u2581illegal": 4802, "\u2581gr\u00e4ns": 4803, "under": 4804, "\u2581Thus": 4805, "\u25811)": 4806, "\u2581patent": 4807, "\u2581lunch": 4808, "\u2581crazy": 4809, "industrin": 4810, "59": 4811, "\u2581Transfer": 4812, "\u2581challenge": 4813, "\u2581testing": 4814, "\u2581leaving": 4815, "\u2581win": 4816, "\u2581equipped": 4817, "\u2581currency": 4818, "\u2581Light": 4819, "64": 4820, "\u2581variety": 4821, "\u2581Mor": 4822, "ski": 4823, "\u2581rapporter": 4824, "\u2581checks": 4825, "\u2581n\u00f6dv\u00e4ndig": 4826, "\u2581India": 4827, "\u2581Plan": 4828, "\u2581250": 4829, "\u2581h\u00e4mta": 4830, "\u2581betraktas": 4831, "\u2581synd": 4832, "\u2581Time": 4833, "\u2581Fler": 4834, "\u2581gammal": 4835, "\u2581Trade": 4836, "ted": 4837, "\u2581effektivitet": 4838, "\u2581enkel": 4839, "\u2581protein": 4840, "79": 4841, "liv": 4842, "\u2581ye": 4843, "dom": 4844, "\u2581justice": 4845, "\u2581Nice": 4846, "\u2581s\u00e4gs": 4847, "(3)": 4848, "\u2581connected": 4849, "hr": 4850, "\u2581starkt": 4851, "omr\u00e5den": 4852, "\u2581frihet": 4853, "\u2581na": 4854, "IV": 4855, "its": 4856, "\u2581Sp": 4857, "\u2581Dis": 4858, "\u2581annars": 4859, "\u2581rural": 4860, "hy": 4861, "\u2581diskutera": 4862, "2015": 4863, "\u2581democratic": 4864, "\u2581kallad": 4865, "\"?": 4866, "q": 4867, "\u2581konsument": 4868, "\u2581n\u00e5gonting": 4869, "\u2581transmission": 4870, "ative": 4871, "\u2581Labour": 4872, "\u2581percent": 4873, "\u2581garanti": 4874, "\u25812009.": 4875, "rin": 4876, "\u2581discuss": 4877, "\u2581profit": 4878, "\u2581acting": 4879, "91": 4880, "\u2581showed": 4881, "\u2581transactions": 4882, "\u2581investerings": 4883, "\u2581Parties": 4884, "\u2581Book": 4885, "\u2581styr": 4886, "\u2581beskrivs": 4887, "\u2581st\u00e4lle": 4888, "\u2581bak": 4889, "\u2581flat": 4890, "\u2581Instant": 4891, "\u2581\u00e5taganden": 4892, "\u2581W\u00e4rtsil\u00e4": 4893, "jo": 4894, "\u2581struktur": 4895, "\u2581functioning": 4896, "\u2581trouble": 4897, "\u2581updated": 4898, "\u2581N\u00e4sta": 4899, "2000": 4900, "tter": 4901, "\u2581sitter": 4902, "eras": 4903, "pp": 4904, "\u2581protected": 4905, "ick": 4906, "\u2581occur": 4907, "\u2581attack": 4908, "\u2581F\u00d6RORDNING": 4909, "07": 4910, "\u2581(2": 4911, "sprocessen": 4912, "ally": 4913, "\u258187": 4914, "\u2581kommentarer": 4915, "\u2581ideal": 4916, "\u2581fly": 4917, "hand": 4918, "\u2581strategic": 4919, "\u2581Web": 4920, "\u2581normalt": 4921, "\u25812004.": 4922, "\u2581Ti": 4923, "\u2581verkliga": 4924, "\u2581combined": 4925, "\u2581explain": 4926, "\u2581drugs": 4927, "\u2581BE": 4928, "\u2581join": 4929, "42": 4930, "\u2581Water": 4931, "\u2581telefon": 4932, "\u2581sidor": 4933, "\u2581informationen": 4934, "8.": 4935, "ordf\u00f6randeskapet": 4936, "\u2581Netherlands": 4937, "\u2581performed": 4938, "\u2581Rights": 4939, "\u00e5tg\u00e4rder": 4940, "\u2581eight": 4941, "\u00e4m": 4942, "\u2581Innan": 4943, "No": 4944, "\u2581flight": 4945, "\u2581vandrarhem": 4946, "53": 4947, "vent": 4948, "sin": 4949, "politik": 4950, "\u2581output": 4951, "\u2581compensation": 4952, "\u2581paragraphs": 4953, "\u2581recognised": 4954, "teknik": 4955, "\u2581promotion": 4956, "\u2581restructuring": 4957, "\u2581shot": 4958, "\u2581l\u00e4ge": 4959, "\u2581samtal": 4960, "\u2581update": 4961, "\u2581absolut": 4962, "\u2581England": 4963, "\u2581l\u00e4ttare": 4964, "\u2581families": 4965, "\u2581havs": 4966, "\u2581accordingly": 4967, "\u2581feet": 4968, "\u2581k\u00f6ra": 4969, "\u2581v\u00e4rdet": 4970, "baserade": 4971, "\u2581periods": 4972, "\u2581omstrukturering": 4973, "st\u00f6d": 4974, "\u2581extended": 4975, "\u2581conducted": 4976, "\u2581f\u00f6rs\u00e4krings": 4977, "\u2581Ru": 4978, "78": 4979, "ent": 4980, "behandling": 4981, "not": 4982, "ile": 4983, "\u2581beakta": 4984, "89": 4985, "\u2581lugnt": 4986, "\u2581spread": 4987, "\u2581medborgarna": 4988, "\u2581window": 4989, "\u2581\u00e5tta": 4990, "\u2581genomsnittliga": 4991, "\u2581Poland": 4992, "\u2581polisen": 4993, "\u2581VAT": 4994, "\u2581slutsatser": 4995, "\u2581fatta": 4996, "\u2581Kontakta": 4997, "tim": 4998, "\u2581path": 4999, "\u2581entity": 5000, "ual": 5001, "\u2581emergency": 5002, "\u2581sektor": 5003, "\u2581sv\u00e5righeter": 5004, "\u2581120": 5005, "\u2581fullst\u00e4ndig": 5006, "For": 5007, "\u2581originating": 5008, "\u2581Tra": 5009, "vatten": 5010, "\u2581judgment": 5011, "\u2581Sha": 5012, "\u2581r\u00e4cker": 5013, "\u2581Maria": 5014, "\u2581KOM": 5015, "ned": 5016, "-3": 5017, "\u2581l\u00e4mnat": 5018, "2005": 5019, "\u2581Greek": 5020, "\u2581Irland": 5021, ".6.": 5022, "lit": 5023, "ship": 5024, "\u2581entirety": 5025, "\u2581regionen": 5026, "related": 5027, "\u2581Spel": 5028, "\u2581cities": 5029, "\u2581anymore": 5030, "\u2581controlled": 5031, "\u2581konto": 5032, "\u2581reality": 5033, "\u2581valuta": 5034, "\u2581br\u00e4nsle": 5035, "\u2581l\u00e5nga": 5036, "\u2581stj\u00e4rnor": 5037, "\u2581egentligen": 5038, "2012": 5039, "\u2581natten": 5040, "\u2581granskning": 5041, "\u2581quantity": 5042, "\u2581enforcement": 5043, "\u2581asking": 5044, "\u2581Del": 5045, "\u2581improvement": 5046, "\u2581kategori": 5047, "ox": 5048, "akt": 5049, "\u2581ber\u00e4ttar": 5050, "\u2581lagt": 5051, "\u2581nation": 5052, "\u2581Mitt": 5053, "\u2581underh\u00e5ll": 5054, "\u2581hate": 5055, "\u2581rekommenderas": 5056, "[": 5057, "far": 5058, "\u2581anstr\u00e4ngningar": 5059, "\u2581Inter": 5060, "\u2581shared": 5061, "\u2581f\u00f6r\u00e4ndring": 5062, "\u2581anger": 5063, "\u2581deep": 5064, "\u2581priset": 5065, "\u2581bror": 5066, "\u2581mode": 5067, "\u2581sick": 5068, "\u2581spiritual": 5069, "m\u00e5l": 5070, "\u2581micro": 5071, "\u2581h\u00e4ndelser": 5072, "\u2581confidence": 5073, "\u2581purchase": 5074, "\u2581litet": 5075, "\u2581partnership": 5076, "\u2581entities": 5077, "\u2581dela": 5078, "\u2581ber\u00e4knas": 5079, "\u2581inleda": 5080, "\u2581reducing": 5081, "\u2581fisk": 5082, "\u2581closely": 5083, "\u2581chans": 5084, "\u2581\u00e5ker": 5085, "\u2581karakt\u00e4r": 5086, "\u2581Uppsala": 5087, "\u2581f\u00f6reslagna": 5088, "\u2581\u00a9": 5089, "\u258154": 5090, "\u2581supports": 5091, "\u2581existence": 5092, "\u2581Over": 5093, "\u2581urban": 5094, "\u2581Schengen": 5095, "\u2581riktning": 5096, "\u2581ban": 5097, "\u2581d\u00f6dade": 5098, "\u2581F\u00f6rl\u00e5t": 5099, "General": 5100, "\u2581mount": 5101, "RE": 5102, "\u2581adverse": 5103, "\u2581Rom": 5104, "\u2581Adam": 5105, "\u2581advance": 5106, "\u2581whereas": 5107, "69": 5108, "\u2581significantly": 5109, "\u2581courses": 5110, "\u2581u": 5111, "\u25814.2": 5112, "\u2581situations": 5113, "pon": 5114, "\u2581st\u00e4ller": 5115, "\u2581telling": 5116, "\u2581tillr\u00e4cklig": 5117, "\u2581obtain": 5118, "\u2581varken": 5119, "\u2581erfarenheter": 5120, "\u2581f\u00f6rr\u00e4n": 5121, "71": 5122, "\u2581signs": 5123, "ible": 5124, "uck": 5125, "\u2581Kristus": 5126, "\u2581Description": 5127, "\u2581fj\u00e4rde": 5128, "\u25812013.": 5129, "\u2581answers": 5130, "car": 5131, "\u2581raise": 5132, "-2": 5133, "Den": 5134, "\u2581island": 5135, "\u00e4ng": 5136, "rate": 5137, "lik": 5138, "\u2581f\u00f6renliga": 5139, "\u2581planned": 5140, "\u2581skit": 5141, "\u2581allm\u00e4nhet": 5142, "\u2581framg\u00e5ng": 5143, "\u2581wind": 5144, "produktion": 5145, "4,": 5146, "\u2581spend": 5147, "kel": 5148, "\u2581f\u00f6rv\u00e4ntas": 5149, "\u2581respekt": 5150, "\u2581informera": 5151, "\u2581praxis": 5152, "\u2581background": 5153, "\u2581ourselves": 5154, "\u2581beaktas": 5155, "\u2581straight": 5156, "\u2581kropp": 5157, "\u2581funktionss\u00e4tt": 5158, "\u2581moved": 5159, "=": 5160, "\u258186": 5161, "\u2581DENNA": 5162, "\u2581dels": 5163, "\u2581agent": 5164, "\u2581m\u00e5n": 5165, "\u2581Austria": 5166, "3)": 5167, "\u2581Area": 5168, "\u2581Sorry": 5169, "9.": 5170, "\u2581produktions": 5171, "0/": 5172, "\u2581commitments": 5173, "\u2581rating": 5174, "II": 5175, "\u25812012,": 5176, "IA": 5177, "\u2581indicate": 5178, "\u2581deliver": 5179, "\u2581grounds": 5180, "\u2581uppr\u00e4tta": 5181, "\u2581jordbruk": 5182, "\u2581metal": 5183, "\u2581klicka": 5184, "elsen": 5185, "\u2581Law": 5186, "ping": 5187, "\u2581involving": 5188, "\u258179": 5189, "\u2581sitting": 5190, "\u2581hearing": 5191, "\u2581block": 5192, "\u2581difficulties": 5193, "rop": 5194, "\u2581badrum": 5195, "\u2581agencies": 5196, "\u2581Us": 5197, "\u2581cohesion": 5198, "\u2581befogenheter": 5199, "\u2581trip": 5200, "\u2581automatiskt": 5201, "\u2581Which": 5202, "\u2581jobbar": 5203, "\u2581charges": 5204, "\u2581confirmed": 5205, "\u2581contributions": 5206, "\u2581spent": 5207, "\u2581internationellt": 5208, "\u2581texten": 5209, "\u2581dad": 5210, "\u00c4r": 5211, "\u2581conformity": 5212, "2013": 5213, "\u2581besluta": 5214, "\u2581Skriv": 5215, "\u2581Anti": 5216, "\u2581bathroom": 5217, "material": 5218, "\u2581secret": 5219, "\u2581l\u00e4t": 5220, "\u2581Tor": 5221, "\u2581easier": 5222, "\u25812012.": 5223, "\u2581AS": 5224, "\u2581ansvarar": 5225, "\u2581N\u00e5gra": 5226, "\u2581satt": 5227, "\u2581played": 5228, "\u2581trading": 5229, ".3.": 5230, "\u2581Danmark": 5231, "\u2581tidpunkt": 5232, "\u2581thy": 5233, "\u2581exportera": 5234, "\u2581Da": 5235, "\u2581governments": 5236, "Han": 5237, "\u2581Syftet": 5238, "\u2581Ah": 5239, "can": 5240, "board": 5241, "\u2581mechanism": 5242, "\u2581handle": 5243, "What": 5244, "rat": 5245, "2001": 5246, "\u2581Should": 5247, "\u25812011.": 5248, "\u2581Proposal": 5249, "\u2581kr\u00e4va": 5250, "\u2581Samtidigt": 5251, "\u2581Once": 5252, "\u2581chemical": 5253, "\u2581mannen": 5254, "\u2581Login": 5255, "\u2581gr\u00e4nser": 5256, "\u2581enlargement": 5257, "\u2581statliga": 5258, "lagstiftningen": 5259, "\u2581skillnad": 5260, "ika": 5261, "\u2581mutual": 5262, "\u2581Island": 5263, "unt": 5264, "\u2581j\u00e4mf\u00f6relse": 5265, "kg": 5266, "\u00f6ver": 5267, "\u2581k\u00f6n": 5268, "This": 5269, "\u2581medf\u00f6r": 5270, "\u2581carrying": 5271, "\u2581votes": 5272, "COM": 5273, "\u2581recommend": 5274, "\u2581forces": 5275, "\u2581Every": 5276, "\u2581kontrakt": 5277, "\u2581infusion": 5278, "\u2581Nothing": 5279, "\u2581meddelandet": 5280, "ades": 5281, "\u2581\u00f6ppet": 5282, "\u2581Number": 5283, ".2.": 5284, "\u2581Gar": 5285, "RA": 5286, "\u2581cycle": 5287, "\u2581produktionen": 5288, "\u2581Fo": 5289, "\u2581mil": 5290, "v\u00e5rd": 5291, "\u2581prevention": 5292, "\u2581vice": 5293, "\u2581underr\u00e4tta": 5294, "Om": 5295, "\u258157": 5296, "\u2581mera": 5297, "country": 5298, "\u2581ber\u00e4ttade": 5299, "\u2581uppst\u00e5r": 5300, "\u2581kungariket": 5301, "\u258194": 5302, "\u2581Star": 5303, "\u2581ledning": 5304, "61": 5305, "\u2581Education": 5306, "CC": 5307, "uc": 5308, "\u2581n\u00e4mnda": 5309, "fe": 5310, "\u2581instance": 5311, "\u2581adjustment": 5312, "ius": 5313, "\u2581aircraft": 5314, "\u2581Paulus": 5315, ".\u00bb": 5316, "\u2581\u00f6vervaka": 5317, "ologi": 5318, "\u2581Also": 5319, "\u2581names": 5320, "\u25812015.": 5321, "somr\u00e5den": 5322, "sel": 5323, "\u2581passed": 5324, "\u2581season": 5325, "\u2581h\u00e5rt": 5326, "\u2581po": 5327, "\u2581permit": 5328, "\u2581\u00e4gg": 5329, "\u2581Tro": 5330, "\u2581assess": 5331, "ISSN": 5332, "\u2581framg\u00e5r": 5333, "\u2581Regulations": 5334, "\u2581fi": 5335, "\u2581residence": 5336, "Be": 5337, "\u2581saknar": 5338, "kontroll": 5339, "\u2581evil": 5340, "\u2581sand": 5341, "\u00f6n": 5342, "\u2581boka": 5343, "\u25812.2": 5344, "67": 5345, "\u2581Denmark": 5346, "\u2581tilltr\u00e4de": 5347, "\u2581agency": 5348, "56": 5349, "\u2581Bre": 5350, "\u25814.1": 5351, "l\u00f6sa": 5352, "emi": 5353, "\u2581budgeten": 5354, "\u2581protokoll": 5355, "\u25812015/": 5356, "\u2581Sal": 5357, "organisationer": 5358, "\u2581Framework": 5359, "\u2581identifiera": 5360, "\u2581wall": 5361, "\u2581targets": 5362, "\u2581ung": 5363, "\u258182": 5364, "\u2581anslag": 5365, "\u2581heter": 5366, "\u2581\u00d6sterrike": 5367, "\u2581hittat": 5368, "rid": 5369, "\u2581ne": 5370, "ture": 5371, "\u258176": 5372, "lic": 5373, "\u2581sets": 5374, "\u2581duration": 5375, "ru": 5376, "\u2581Ume\u00e5": 5377, "\u2581Hitta": 5378, "\u2014": 5379, "\u2581f\u00f6rdelar": 5380, "81": 5381, "\u2581vart": 5382, "\u2581treat": 5383, ".5.": 5384, "\u2581konkurrensen": 5385, "\u2581birth": 5386, "\u2581spring": 5387, "\u2581uniform": 5388, "\u2581vackra": 5389, "\u2581beh\u00e5lla": 5390, "\u2581married": 5391, "\u2581talade": 5392, "v\u00e4g": 5393, "\u2581dosen": 5394, "\u2581absence": 5395, "\u2581Excuse": 5396, "\u2581migration": 5397, "\u2581reasonable": 5398, "\u2581Technology": 5399, "\u2581tender": 5400, "mi": 5401, "\u2581v\u00e4rlds": 5402, "\u2581estimated": 5403, "uri": 5404, "2016": 5405, "pri": 5406, "76": 5407, "\u2581kurs": 5408, "\u2581fortsatt": 5409, "\u2581tj\u00e4na": 5410, "\u2581Par": 5411, "\u258161": 5412, "\u2581lo": 5413, "\u2581ringa": 5414, "\u258199": 5415, "\u2581diseases": 5416, "\u2581ideas": 5417, "\u2581sister": 5418, "86": 5419, "\u2581betalar": 5420, "\u2581metall": 5421, "\u2581gender": 5422, "/3": 5423, "\u2581grunden": 5424, "\u2581silver": 5425, "\u2581Really": 5426, "\u2581select": 5427, "nu": 5428, "\u2581middle": 5429, "br": 5430, "\u2581Power": 5431, "\u2581adress": 5432, "\u2581spanska": 5433, "ien": 5434, "\u2581tips": 5435, "\u2581medlem": 5436, "\u2581tillg\u00e4nglighet": 5437, "iva": 5438, "6,": 5439, "f\u00f6rordningen": 5440, "\u2581s\u00e4kerheten": 5441, "73": 5442, "\u2581St\u00f6d": 5443, "\u2581dagligen": 5444, "\u2581identification": 5445, "ix": 5446, "\u2581ka": 5447, "\u2581vinna": 5448, "\u2581forest": 5449, "\u2581positions": 5450, "vikt": 5451, "\u2581calling": 5452, "\u2581lie": 5453, "ability": 5454, "\u2581Van": 5455, "\u2581oro": 5456, "\u2581gods": 5457, "\u2581Bio": 5458, "72": 5459, "\u25814:": 5460, "\u2581ledande": 5461, "\u2581consistent": 5462, "\u2581alfa": 5463, "\u2581best\u00e4mma": 5464, "\u2581minns": 5465, "\u2581soul": 5466, "\u2581EIB": 5467, "\u2581d\u00f6rren": 5468, "\u2581lyssna": 5469, "2014": 5470, "\u2581inverkan": 5471, "MA": 5472, "\u2581express": 5473, "\u2581previously": 5474, "ology": 5475, "\u2581st\u00e4der": 5476, "\u2581kredit": 5477, "\u2581prioriteringar": 5478, "\u2581damer": 5479, "\u2581begr\u00e4nsad": 5480, "\u2581raw": 5481, "\u2581claims": 5482, "\u2581guld": 5483, "\u2581sexual": 5484, "\u2581offering": 5485, "\u2581kampen": 5486, "\u2581m\u00f6ten": 5487, "\u2581solid": 5488, "\u258178": 5489, "\u2581massa": 5490, "\u25813-": 5491, "\u2581fara": 5492, "\u25812014.": 5493, "\u2581sektorer": 5494, "lat": 5495, "\u2581ting": 5496, "\u2581barnen": 5497, "\u2581Standard": 5498, "\u2581erk\u00e4nnande": 5499, "\u2581negativa": 5500, "\u2581vital": 5501, "\u2581V\u00e4lj": 5502, "\u2581concentration": 5503, "\u2581namnet": 5504, "\u2581lay": 5505, "\u2581\u00f6verstiger": 5506, "fen": 5507, "s\u00e4tt": 5508, "\u2581ang\u00e5ende": 5509, "\u2581prepare": 5510, "\u2581anl\u00e4ggningar": 5511, "\u2581m\u00e4nniskors": 5512, "\u2581Jan": 5513, ".4.": 5514, "\u2581verkan": 5515, "san": 5516, "\u2581Ke": 5517, "\u2581Functioning": 5518, "\u2581samh\u00e4lle": 5519, "\u2581fund": 5520, "\u2581Pen": 5521, "\u2581standarder": 5522, "\u2581century": 5523, "\u2581specifically": 5524, "\u2581spelet": 5525, "\u2581managed": 5526, "\u00e5t": 5527, "\u2581Malta": 5528, "\u2581beg\u00e4r": 5529, "\u2581innovative": 5530, "\u2581hospital": 5531, "\u2581industrin": 5532, "\u2581Environment": 5533, "ug": 5534, "\u2581samarbeta": 5535, "ient": 5536, "\u2581starka": 5537, "\u2581Employment": 5538, "\u2581stater": 5539, "\u2581effectiveness": 5540, "87": 5541, "\u2581annorlunda": 5542, "\u2581verket": 5543, "bild": 5544, "but": 5545, "\u2581delay": 5546, "\u2581illa": 5547, "\u2581F\u00f6rdraget": 5548, "\u2581d\u00f6r": 5549, "\u2581aktivt": 5550, "side": 5551, "\u2581modeller": 5552, "\u2581svarade": 5553, "\u2581organised": 5554, "\u258173": 5555, "lam": 5556, "\u2581befolkningen": 5557, "\u2581m\u00e4nniskorna": 5558, "\u2581blue": 5559, "\u2581stoppa": 5560, "\u258162": 5561, "\u2581personliga": 5562, "\u2581amerikanska": 5563, "\u2581r\u00e4ttvisa": 5564, "\u2581boys": 5565, "\u2581Products": 5566, "\u2581rich": 5567, "\u2581utmaningar": 5568, "\u2581farmers": 5569, "\u2581Average": 5570, "\u2581participants": 5571, "\u2581broad": 5572, "\u2581links": 5573, "\u2581ecu": 5574, "/10": 5575, "\u2581color": 5576, "por": 5577, "\u2581majoritet": 5578, "djur": 5579, "\u2581bryr": 5580, "pass": 5581, "\u2581nej": 5582, "\u2581Chi": 5583, "\u2581buildings": 5584, "verksamhet": 5585, "\u2581ing\u00e5": 5586, "ight": 5587, "OS": 5588, "\u2581books": 5589, "\u2581huh": 5590, "\u2581\u25a1": 5591, "\u2581Hu": 5592, "\u2581grow": 5593, "63": 5594, "\u2581f\u00f6rklarar": 5595, "\u2581avgifter": 5596, "\u2581inspection": 5597, "\u2581lista": 5598, "\u2581tidigt": 5599, "\u2581samh\u00e4lls": 5600, "\u2581Regional": 5601, "\u2581happening": 5602, "\u2581alkohol": 5603, "\u2581Nederl\u00e4nderna": 5604, "\u2581Polen": 5605, "\u2581vacker": 5606, "\u2581Bli": 5607, "\u2581refer": 5608, "\u258164": 5609, "\u2581brev": 5610, "\u2581europeiskt": 5611, "\u2581huge": 5612, "\u2581H\u00f6g": 5613, "\u2581respond": 5614, "\u2581elektroniska": 5615, "wa": 5616, "\u2581removed": 5617, "\u2581st\u00e4mmer": 5618, "\u2581Michael": 5619, "\u2581Si": 5620, "\u25812013,": 5621, "\u2581undan": 5622, "pris": 5623, "\u2581Review": 5624, "mal": 5625, "\u2581artiklar": 5626, "\u2010": 5627, "\u2581aktiviteter": 5628, "\u2581older": 5629, "\u2581powerful": 5630, "\u2581konsumenterna": 5631, "\u2581healthy": 5632, "\u2581priserna": 5633, "\u2581perform": 5634, "\u2581finish": 5635, "\u2581foder": 5636, "\u2581nyckel": 5637, "making": 5638, "\u2581[2],": 5639, "elser": 5640, "\u2581beh\u00f6vde": 5641, "gan": 5642, "\u2581Download": 5643, "ON": 5644, "\u2581discussed": 5645, "stra": 5646, "\u2581svara": 5647, "\u2581loans": 5648, "\u2581k\u00f6p": 5649, "\u2581latter": 5650, "\u2581imposed": 5651, "\u2581s\u00f6kande": 5652, "\u2581ansvarig": 5653, "\u2581pictures": 5654, "\u2581licence": 5655, "\u2581v\u00e4gnar": 5656, "\u2581spelare": 5657, "\u2581everybody": 5658, "\u00f6v": 5659, "\u2581Make": 5660, "\u2581protokollet": 5661, "eth": 5662, "\u2581schedule": 5663, "\u2581\u00f6ppnar": 5664, "\u2581aged": 5665, "\u2581f\u00e4lt": 5666, "\u2581promise": 5667, "\u2581f\u00f6redraganden": 5668, "\u2581Sol": 5669, "\u25810,": 5670, "dal": 5671, "\u2581alive": 5672, "\u2581kl\u00e4der": 5673, "Hur": 5674, "amp": 5675, "part": 5676, "IF": 5677, "\u2581\u00e4nda": 5678, "\u2581Control": 5679, "sperioden": 5680, "\u2581coffee": 5681, "\u2581marknader": 5682, "\u258171": 5683, "avtal": 5684, "\u2581ledde": 5685, "\u2581positivt": 5686, "\u2581h\u00e4nda": 5687, "\u2581becomes": 5688, "\u2581bevara": 5689, "\u2581experienced": 5690, "\u2581Nations": 5691, "\u2581Design": 5692, "\u2581f\u00f6rbindelser": 5693, "\u2581ligga": 5694, "\u2581manufacturing": 5695, "\u2581posts": 5696, "\u2581Hej": 5697, "\u2581eventuellt": 5698, "\u2581twice": 5699, "\u2581surveillance": 5700, "\u2581label": 5701, "\u2581Kosovo": 5702, "IL": 5703, "\u2581timme": 5704, "\u2581minskar": 5705, "\u2581mechanisms": 5706, "\u2581indicators": 5707, "\u2581f\u00f6rbi": 5708, "bank": 5709, "\u2581master": 5710, "lev": 5711, "\u2581Finlands": 5712, "\u2581personen": 5713, "\u2581error": 5714, "ons": 5715, "\u2581Svensk": 5716, "\u2581transaktioner": 5717, "\u2581science": 5718, "\u2581Christians": 5719, "\u2581respectively": 5720, "\u2581mobility": 5721, "\u2581parlamentets": 5722, "projekt": 5723, "tes": 5724, "back": 5725, "54": 5726, "PA": 5727, "\u2581fritt": 5728, "\u2581Friday": 5729, "dra": 5730, "ita": 5731, "\u2581betalas": 5732, "\u2581agriculture": 5733, "\u2581refund": 5734, "ize": 5735, "\u2581EGT": 5736, "\u2581sv\u00e5ra": 5737, "\u2581conflict": 5738, "ighet": 5739, "\u2581alcohol": 5740, "\u2581transparent": 5741, "\u2581poverty": 5742, "\u2581vessel": 5743, "\u2581Share": 5744, "\u2581debatten": 5745, "\u2581Rules": 5746, "5,": 5747, "\u2581comment": 5748, "\u2581catch": 5749, "\u2581tekniskt": 5750, "\u2581meant": 5751, "\u2581syster": 5752, "\u2581advanced": 5753, "\u2581Ba": 5754, "\u258159": 5755, "\u2581ra": 5756, "\u25815.": 5757, "\u2581structures": 5758, "istiska": 5759, "\u2581f\u00f6rdel": 5760, "\u2581inr\u00e4tta": 5761, "\u2581models": 5762, "\u2581George": 5763, "\u258158": 5764, "\u2581beslutade": 5765, "\u2581standing": 5766, "dia": 5767, "\u2581Skicka": 5768, "\u2581copy": 5769, "77": 5770, "typ": 5771, "\u2581t\u00e4cka": 5772, "\u2581betalning": 5773, "\u2581church": 5774, "stock": 5775, "\u2581Far": 5776, "\u2581Best": 5777, "\u25812014,": 5778, "cal": 5779, "\u2581svarar": 5780, "\u2581Carl": 5781, "\u2581begr\u00e4nsa": 5782, "\u2581styrka": 5783, "\u2581powder": 5784, "\u00d6": 5785, "\u2581emission": 5786, "\u2581Sport": 5787, "\u258177": 5788, "\u2581omfattning": 5789, "\u2581represent": 5790, "\u2581park": 5791, "\u2581inf\u00f6ras": 5792, "\u2581k\u00e4nt": 5793, "\u2581outcome": 5794, "zo": 5795, "\u2581Organisation": 5796, "ret": 5797, "las": 5798, "\u2581player": 5799, "tryck": 5800, "\u2581helping": 5801, "\u2581hj\u00e4rtat": 5802, "\u2581Finns": 5803, "mit": 5804, "\u2581aktiv": 5805, "EM": 5806, "\u2581rapportering": 5807, "\u2581Does": 5808, "\u2581brain": 5809, "old": 5810, "\u2581efterfr\u00e5gan": 5811, "\u2581gun": 5812, "star": 5813, "\u2581salt": 5814, "\u2581\u00f6versyn": 5815, "\u2581Give": 5816, "\u2581Sub": 5817, "\u2581hy": 5818, "ux": 5819, "dan": 5820, "\u2581hittills": 5821, "\u2581f\u00f6rebyggande": 5822, "dag": 5823, "\u2581James": 5824, "\u2581snabbare": 5825, "\u2581garden": 5826, "\u2581figures": 5827, "\u2581organization": 5828, "\u2581\u00e4ger": 5829, "\u2581punkter": 5830, "\u2581appointed": 5831, "\u2581kallat": 5832, "\u2581rock": 5833, "\u2581Anna": 5834, "\u2581researchers": 5835, "\u2581svart": 5836, "\u2581manage": 5837, "\u2581multiple": 5838, "\u25811991": 5839, "ku": 5840, "\u2581carbon": 5841, "\u2581bus": 5842, "\u2581agents": 5843, "gon": 5844, "\u2581sten": 5845, "\u2581arter": 5846, "\u2581immediate": 5847, "ura": 5848, "\u2581Hold": 5849, "\u2581viktprocent": 5850, "\u2581Trans": 5851, "\u2581Dad": 5852, "\u2581Master": 5853, "\u2581strengthening": 5854, "\u2581f\u00f6rekommande": 5855, "\u2581para": 5856, "\u2581beskrivning": 5857, "\u2581Strategy": 5858, "\u2581chosen": 5859, "\u25813.2": 5860, "ding": 5861, "\u2581appears": 5862, "\u2581eld": 5863, "AC": 5864, "\u2581boat": 5865, "\u2581skriver": 5866, "\u2581gl\u00e4dje": 5867, "\u2581uppmuntra": 5868, "\u2581fasta": 5869, "\u2581covering": 5870, "\u2581Safety": 5871, "ider": 5872, "\u2581properly": 5873, "ey": 5874, "ee": 5875, "\u2581seat": 5876, "\u2581ordet": 5877, "\u2581bud": 5878, "\u2581religious": 5879, "\u258166": 5880, "Without": 5881, "\u2581formal": 5882, "UR": 5883, "\u2581SE": 5884, "\u2581Ber\u00e4tta": 5885, "\u2581huden": 5886, "\u2581revenue": 5887, "\u2581f\u00f6rteckningen": 5888, "\u2581enhance": 5889, "\u2581wonderful": 5890, "\u2581frequency": 5891, "\u2581cars": 5892, "\u2581f\u00f6rb\u00e4ttring": 5893, "\u2581organic": 5894, "\u2581ist\u00e4llet": 5895, "problem": 5896, "\u2581f\u00f6rtroende": 5897, "\u2581tabell": 5898, "lim": 5899, "\u258181": 5900, "\u2581skuld": 5901, "ical": 5902, "\u2581Storbritannien": 5903, "\u2581gr\u00f6nsaker": 5904, "\u2581ut\u00f6ver": 5905, "4)": 5906, "\u258189": 5907, "\u2581Romania": 5908, "app": 5909, "RO": 5910, "\u2581rail": 5911, "\u2581falling": 5912, "\u2581finance": 5913, "\u2581naturliga": 5914, "ash": 5915, "\u2581avsikt": 5916, "\u2581gemenskapernas": 5917, "\u2581k\u00e4nd": 5918, "\u2581accident": 5919, "EGT": 5920, "\u2581beg\u00e4ra": 5921, "\u2581(5)": 5922, "ME": 5923, "utrustning": 5924, "\u2581sjuk": 5925, "PT": 5926, "\u2581helped": 5927, "\u2581opinions": 5928, "\u2581\u00d6ppna": 5929, "\u2581Following": 5930, "\u2581Mat": 5931, "\u2581vanligt": 5932, "\u2581Kolla": 5933, "\u2581recorded": 5934, "\u2581bl\u00e5": 5935, "\u2581heavy": 5936, "\u2581fell": 5937, "\u2581gold": 5938, "\u2581tagits": 5939, "An": 5940, "skommitt\u00e9n": 5941, "\u2581ans\u00f6kningar": 5942, "\u2581interna": 5943, "illa": 5944, "\u2581lade": 5945, "\u2581closer": 5946, "84": 5947, "\u2581f\u00f6rvaltningen": 5948, "\u2581stakeholders": 5949, "\u2581disorders": 5950, "kraft": 5951, "row": 5952, "\u2581renewable": 5953, "\u2581British": 5954, "\u2581Index": 5955, "\u2581Hoppa": 5956, "\u2581separat": 5957, "\u2581Lot": 5958, "\u00c5": 5959, "\u2581dealing": 5960, "\u2581faktiska": 5961, "\u2581sv\u00e5r": 5962, "\u2581Compare": 5963, "\u2581stick": 5964, "\u00e9n": 5965, "\u2581prove": 5966, "\u2581allocated": 5967, "\u2581weather": 5968, "ther": 5969, "\u2581ig\u00e5ng": 5970, "\u2581symbol": 5971, "\u2581sample": 5972, "AM": 5973, "\u2581firms": 5974, "\u2581download": 5975, "\u2581Je": 5976, "\u2581ont": 5977, "\u2581hindra": 5978, "ect": 5979, "\u2581burden": 5980, "\u2581J\u00e4mf\u00f6r": 5981, "\u25812011,": 5982, "\u2581invited": 5983, "\u2581constitute": 5984, "\u2581administrering": 5985, "\u2581Czech": 5986, "\u2581retail": 5987, "\u2581tittar": 5988, "\u2581somebody": 5989, "ef": 5990, "\u2581namely": 5991, "\u258108": 5992, "\u2581Fi": 5993, "zi": 5994, "\u2581verksamma": 5995, "\u2581Mi": 5996, "ENT": 5997, "\u2581Play": 5998, "\u2581Ur": 5999, "\u2581F\u00f6rslag": 6000, "\u2581Another": 6001, "\u2581foot": 6002, "\u2581mom": 6003, "\u2581sky": 6004, "borg": 6005, "\u2581OM": 6006, "ky": 6007, "\u2581crucial": 6008, "\u2581ko": 6009, "\u2581l\u00e5ga": 6010, "\u2581administered": 6011, "\u2581Va": 6012, "\u2581F\u00f6re": 6013, "\u2581upphov": 6014, "\u2581(3": 6015, "\u2581assist": 6016, "\u2581f\u00f6rutom": 6017, "\u2581kommitt\u00e9": 6018, "somr\u00e5det": 6019, "\u2581detail": 6020, "ern": 6021, "ib": 6022, "\u2581impossible": 6023, "gre": 6024, "\u2581wrote": 6025, "\u2581huvudsakligen": 6026, "\u2581transit": 6027, "\u2581hundra": 6028, "\u2581till\u00e5ter": 6029, "\u2581character": 6030, "\u2581iron": 6031, "\u2581subjects": 6032, "kul": 6033, "\u2581st\u00e4ndigt": 6034, "\u2581poker": 6035, "\u2581F\u00f6rst": 6036, "tions": 6037, "\u2581increases": 6038, "\u2581fattar": 6039, "\u2581dinner": 6040, "hu": 6041, "\u2581hantering": 6042, "\u2581motion": 6043, "\u2581manufacture": 6044, "\u2581tariff": 6045, "gra": 6046, "\u2581larger": 6047, "\u2581tele": 6048, "\u2581hundred": 6049, "\u2581allocation": 6050, "\u2581Slutligen": 6051, "\u2581restrictions": 6052, "\u2581substantial": 6053, "\u2581operate": 6054, "\u2581teaching": 6055, "\u2581supervision": 6056, "\u2581Ga": 6057, "IM": 6058, "\u2581n\u00e4rheten": 6059, "\u2581kommitt\u00e9ns": 6060, "\u2581examine": 6061, "\u2581guarantees": 6062, "\u2581h\u00e4ndelse": 6063, "\u2581GDP": 6064, "(4)": 6065, "\u2581blind": 6066, "\u2581Bu": 6067, "\u2581produkterna": 6068, "bin": 6069, "gy": 6070, "\u2581ID": 6071, "\u2581aluminium": 6072, "\u2581voted": 6073, "su": 6074, "\u2581vattnet": 6075, "EUR": 6076, "\u2581Form": 6077, "\u2581utseende": 6078, "\u2581tydlig": 6079, "\u00e4n": 6080, "\u2581riktlinjerna": 6081, "\u2581aren": 6082, "\u2581exporting": 6083, "\u2581Sure": 6084, "\u2581Ed": 6085, "\u2581critical": 6086, "\u2581utm\u00e4rkt": 6087, "\u2581south": 6088, "\u2581host": 6089, "\u2581tillf\u00e4lligt": 6090, "\u2581p\u00e5g\u00e5r": 6091, "\u25812010,": 6092, "\u2581tyckte": 6093, "\u2581looked": 6094, "ula": 6095, "grupper": 6096, "\u2581inneb\u00e4ra": 6097, "\u2581rental": 6098, "\u2581despite": 6099, "\u2581kallar": 6100, "ii": 6101, "TV": 6102, "pen": 6103, "pol": 6104, "\u2581drop": 6105, "UN": 6106, "58": 6107, "\u2581Vilket": 6108, "\u2581processen": 6109, "\u2581accompanied": 6110, "\u2581finner": 6111, "\u2581Lyssna": 6112, "\u2581unders\u00f6kningar": 6113, "\u2581consists": 6114, "r\u00f6": 6115, "arnas": 6116, "\u2581H\u00f6r": 6117, "\u2581kille": 6118, "ani": 6119, "\u2581pensions": 6120, "\u2581konsekvenser": 6121, "\u2581communications": 6122, "\u2581itu": 6123, "CA": 6124, "\u2581disposal": 6125, "vik": 6126, "\u2581k\u00e4nsla": 6127, "57": 6128, "\u2581jobbet": 6129, "\u2581Earth": 6130, "\u2581mr": 6131, "\u2581stocks": 6132, "\u2581continuing": 6133, "\u2581skyldig": 6134, "ats": 6135, "\u25812016.": 6136, "\u2581kontor": 6137, "cho": 6138, "\u2581Iran": 6139, "\u2581Sunday": 6140, "\u2581Their": 6141, "l\u00e4nderna": 6142, "\u2581injury": 6143, "\u2581Mediterranean": 6144, "cent": 6145, "\u2581minister": 6146, "\u2581ans\u00e5g": 6147, "\u2581Norway": 6148, "\u2581respective": 6149, "\u2581Beskrivning": 6150, ".3": 6151, "\u2581fix": 6152, "\u2581regime": 6153, "\u2581remaining": 6154, "\u2581satisfied": 6155, "\u2581nations": 6156, "\u2581restaurant": 6157, "arbetstillf\u00e4llen": 6158, "\u2581Nord": 6159, "low": 6160, "\u2581display": 6161, "SI": 6162, "\u2581stan": 6163, "\u2581translation": 6164, "\u2581kung": 6165, "\u2581vegetables": 6166, "\u2581Protection": 6167, "\u25812015,": 6168, "\u2581specifications": 6169, "\u2581relativt": 6170, "\u2581snarare": 6171, "-5": 6172, "\u2581Nor": 6173, "\u2581borders": 6174, "\u2581k\u00e4nda": 6175, "\u2581positiv": 6176, "\u2581ut\u00f6va": 6177, "\u2581f\u00f6rekommer": 6178, "ligen": 6179, "\u2581injektion": 6180, "\u2581stabilitet": 6181, "\u2581revolution": 6182, "ola": 6183, "\u2581RE": 6184, "\u2581north": 6185, "\u2581Company": 6186, "\u2581Matt": 6187, "\u2581fellow": 6188, "cur": 6189, "\u2581%.": 6190, "\u2581v\u00e4rd": 6191, "\u2581anbud": 6192, "\u2581becoming": 6193, "tag": 6194, "\u25815.1": 6195, "\u2581stat": 6196, "\u2581Cal": 6197, "\u2581fokus": 6198, "\u2581victims": 6199, "\u2581dagens": 6200, "100": 6201, "ari": 6202, "\u2581Science": 6203, "\u2581(19": 6204, "\u2581provisional": 6205, "\u2581reglering": 6206, "\u2581television": 6207, "\u2581m\u00f6ta": 6208, "LE": 6209, "\u2581ISO": 6210, "\u2581capable": 6211, "\u2581bomb": 6212, "\u2581exponering": 6213, "bro": 6214, "MS": 6215, "\u2581pan": 6216, "prov": 6217, "ini": 6218, "\u2581prison": 6219, "lund": 6220, "\u258168": 6221, "\u2581declared": 6222, "\u2581keeping": 6223, "\u2581governance": 6224, "\u2581employed": 6225, "\u2581Kar": 6226, "\u2581Source": 6227, "\u2581forth": 6228, "\u2581photos": 6229, "\u2581requests": 6230, "ATION": 6231, "\u2581%)": 6232, "\u2581Bland": 6233, "\u2581Further": 6234, "\u2581S\u00e4tt": 6235, "\u2581Item": 6236, "gor": 6237, "\u2581\u00d6vriga": 6238, "\u2581reforms": 6239, "\u2581VII": 6240, "\u2581orders": 6241, "\u2581appearance": 6242, "\u2581soft": 6243, "\u2581allowing": 6244, "\u2581Poker": 6245, "\u258102": 6246, "\u2581mask": 6247, "\u2581lyckas": 6248, "\u2581failed": 6249, "\u2581Antal": 6250, "\u2581Thursday": 6251, "4-": 6252, "\u2581kommission\u00e4r": 6253, "\u258174": 6254, "\u2581uppfattning": 6255, "\u2581covers": 6256, "\u2581k\u00f6k": 6257, "\u2581100%": 6258, "\u2581Hall": 6259, "\u2581competence": 6260, "\u2581BNP": 6261, "\u2581speaking": 6262, "\u2581h\u00e5llbarhet": 6263, "\u2581guidance": 6264, "OL": 6265, "\u2581slutliga": 6266, "\u2581seed": 6267, "\u2581arms": 6268, "\u2581kolla": 6269, "\u2581amazing": 6270, "\u2581object": 6271, "\u2581worse": 6272, "\u2581anpassning": 6273, "/11": 6274, "bel": 6275, "\u2581agera": 6276, "\u2581\u00e5tg\u00e4rden": 6277, "\u2581mention": 6278, "\u2581l\u00e4mnats": 6279, "\u2581Student": 6280, "\u2581modified": 6281, "box": 6282, "\u2581konkreta": 6283, "\u2581chain": 6284, "\u2581intressant": 6285, "-11": 6286, "\u2581accounting": 6287, "ogen": 6288, "\u2581avdelning": 6289, "\u2581utf\u00f6rs": 6290, "\u2581ice": 6291, "\u2581ers\u00e4tta": 6292, "\u2581lagring": 6293, "\u2581CYP": 6294, "\u2581resten": 6295, "\u2581hopp": 6296, "\u2581facts": 6297, "\u258188": 6298, "\u2581Next": 6299, "\u2581bygg": 6300, "ious": 6301, "\u2581Luxembourg": 6302, "\u2581discrimination": 6303, "\u2581intra": 6304, "\u2581Satan": 6305, "\u25812-": 6306, "\u2581primarily": 6307, "syra": 6308, "\u2581continues": 6309, "\u2581familje": 6310, "\u2581Nyheter": 6311, "yr": 6312, "pin": 6313, "\u2581truly": 6314, "\u2581fr\u00e5gade": 6315, "\u2581demokrati": 6316, "\u2581verksamheter": 6317, "\u2581redovisning": 6318, "\u2581BESLUT": 6319, "\u2581goals": 6320, "grupp": 6321, "-6": 6322, "7,": 6323, "\u2581technological": 6324, "\u2581Fin": 6325, "\u2581desire": 6326, "\u2581t\u00e4nkt": 6327, "lands": 6328, "\u2581broken": 6329, "\u2581gain": 6330, "\u2581seeing": 6331, "\u2581paket": 6332, "\u2581log": 6333, "\u2581tj\u00e4nare": 6334, "\u2581Ekonomiska": 6335, "\u2581sovrum": 6336, "org": 6337, "\u2581fr\u00e4msta": 6338, "tain": 6339, "\u2581kronor": 6340, "\u2581Dela": 6341, "\u2581idiot": 6342, "\u2581unders\u00f6kningen": 6343, "\u2581bringing": 6344, "\u2581ombord": 6345, "\u2581warm": 6346, "\u2581v\u00e4xt": 6347, "\u2581Reg": 6348, "\u2581offentliggjorts": 6349, "\u2581urs\u00e4kt": 6350, "\u2581olje": 6351, "ld": 6352, "\u2581tillhandah\u00e5ller": 6353, "`": 6354, "\u2581Bal": 6355, "\u2581FI": 6356, "best\u00e4mmelser": 6357, "\u2581l\u00e4ngd": 6358, "\u2581Israels": 6359, "\u2581spara": 6360, "\u2581ras": 6361, "\u2581delegation": 6362, "\u2581allvarlig": 6363, "\u2581Word": 6364, "TS": 6365, "\u2581comparison": 6366, "stj\u00e4nster": 6367, "\u2581ande": 6368, "VA": 6369, "\u2581straff": 6370, "\u25811.5": 6371, "til": 6372, "\u2581trial": 6373, "vel": 6374, "\u2581gentemot": 6375, "\u2581stable": 6376, "\u2581quick": 6377, "\u2581youth": 6378, "\u2581defence": 6379, "\u2581industries": 6380, "\u2581effekterna": 6381, "\u2581awareness": 6382, "\u2581alldeles": 6383, "\u2581passenger": 6384, "\u2581slutligen": 6385, "\u2581platsen": 6386, "\u2581s\u00e5nt": 6387, "\u2581Gi": 6388, "\u2581Genomsnittlig": 6389, "\u2581inkomst": 6390, "\u2581Samma": 6391, "\u2581elections": 6392, "\u2581ST": 6393, "\u2581Ytterligare": 6394, "\u2581Funds": 6395, "\u2581\u00e4mnet": 6396, "\u2581b\u00e4ra": 6397, "\u2581licences": 6398, "\u2581App": 6399, "\u2581mid": 6400, "\u2581regel": 6401, "punkt": 6402, "\u2581\u03bc": 6403, "\u2581SA": 6404, "\u2581tankar": 6405, "din": 6406, "\u2581id\u00e9": 6407, "\u2581samla": 6408, "\u2581screen": 6409, "\u2581j\u00e4mst\u00e4lldhet": 6410, "2017": 6411, "\u2581externa": 6412, "\u2581Hotell": 6413, "\u2581kolleger": 6414, "jan": 6415, "\u2581godk\u00e4nts": 6416, "\u2581s\u00e4lja": 6417, "\u258163": 6418, "\u2581Street": 6419, "\u2581s\u00f6kning": 6420, "ob": 6421, "\u2581veterinary": 6422, "\u2581Norge": 6423, "\u2581(\u2018": 6424, "2006": 6425, "spolitiken": 6426, "\u2581Utbildning": 6427, "\u2581inst\u00e4llning": 6428, "74": 6429, "\u2581Job": 6430, "\u2581planerade": 6431, "\u2581skillnader": 6432, "v\u00e4rde": 6433, "\u2581exports": 6434, "\u2581greatest": 6435, "\u2581officer": 6436, "\u2581introduce": 6437, "\u2581r\u00e5der": 6438, "\u2581dream": 6439, "\u2581f\u00f6nster": 6440, "\u25812002.": 6441, "l\u00e4nder": 6442, "\u2581d\u00f6den": 6443, "\u2581proof": 6444, "\u2581flytta": 6445, "\u2581sk": 6446, "\u2581begr\u00e4nsningar": 6447, "\u2581considerable": 6448, "\u2581Skulle": 6449, "\u2581hyper": 6450, "\u2581putting": 6451, "\u2581automatically": 6452, "\u2581ball": 6453, "\u2581Afrika": 6454, "\u2581statements": 6455, "dos": 6456, "83": 6457, "\u2581Super": 6458, "\u2581combat": 6459, "\u2581antagits": 6460, "ori": 6461, "\u2581Terms": 6462, "\u2581released": 6463, "\u2581definitionen": 6464, "\u2581krisen": 6465, "52": 6466, "\u2581Consumer": 6467, "ery": 6468, "\u2581K\u00f6p": 6469, "vet": 6470, "\u2581konventionen": 6471, "\u2581fas": 6472, "\u2581professor": 6473, "\u2581plast": 6474, "\u2581TILL": 6475, "\u2581gjordes": 6476, "\u2581statistical": 6477, "tet": 6478, "\u2581r\u00e4ttslig": 6479, "SE": 6480, "\u25812000.": 6481, "\u2581fit": 6482, "\u2581loan": 6483, "\u2581Forts\u00e4tt": 6484, "\u2581n\u00e4tet": 6485, "\u2581determining": 6486, "ists": 6487, "\u2581concrete": 6488, "\u2581reflect": 6489, "\u2581mineral": 6490, "\u2581marriage": 6491, "\u2581800": 6492, "\u2581humans": 6493, "\u2581showing": 6494, "\u258107": 6495, "Do": 6496, "erar": 6497, "\u2581pe": 6498, "\u2581appreciate": 6499, "\u2581learned": 6500, "rik": 6501, "Text": 6502, "\u2581allvarligt": 6503, "\u2581avg\u00f6ra": 6504, "\u2581derogation": 6505, "\u2581godk\u00e4nda": 6506, "\u2581netto": 6507, "\u2581inneh\u00e5llande": 6508, "\u2581Top": 6509, "\u2581tolv": 6510, "vit": 6511, "sen": 6512, "\u2581experiences": 6513, "responsibilities": 6514, "\u2581feels": 6515, "\u2581Net": 6516, "\u2581none": 6517, "\u2581Berg": 6518, "bas": 6519, "\u2581juridiska": 6520, "\u2581fourth": 6521, "\u2581kinesiska": 6522, "\u2581f\u00f6rhandlingarna": 6523, "europa": 6524, "\u2581geographical": 6525, "\u2581diabetes": 6526, "\u2581sweet": 6527, "\u25819,": 6528, "\u2581collected": 6529, "\u2581taxes": 6530, "\u2581kompletterande": 6531, "\u2581farm": 6532, "\u2581Robert": 6533, "ea": 6534, "\u2581domstol": 6535, "\u2581thousands": 6536, "\u2581Ibland": 6537, "\u2581assessed": 6538, "\u2581Program": 6539, "\u2581\u00d7": 6540, "\u2581Indien": 6541, "vor": 6542, "\u2581Beslut": 6543, "\u2581Test": 6544, "\u2581Institute": 6545, "\u2581klockan": 6546, "\u2581SOM": 6547, "\u2581adjusted": 6548, "\u2581huvudet": 6549, "\u2581Jesu": 6550, "\u2581causes": 6551, "\u2581boss": 6552, "\u2581Mary": 6553, "TI": 6554, "lade": 6555, "\u2581exception": 6556, "\u2581ships": 6557, "\u2581ansikte": 6558, "\u2581bilden": 6559, "\u2581tyst": 6560, "lagstiftning": 6561, "\u2581Utf\u00e4rdad": 6562, "\u2581load": 6563, "\u2581File": 6564, "\u2581mobil": 6565, "(5)": 6566, "\u2581minsta": 6567, "\u2581f\u00f6rutsatt": 6568, "\u2581Watch": 6569, "cin": 6570, "ges": 6571, "\u2581Network": 6572, "\u2581carefully": 6573, "\u2581provider": 6574, "\u2581parkering": 6575, "chi": 6576, "\u2581experter": 6577, "\u2581participating": 6578, "\u2581diskriminering": 6579, "sniv\u00e5": 6580, "\u2581planer": 6581, "\u2581kingdom": 6582, "\u2581strategies": 6583, "\u2581Title": 6584, ".4": 6585, "\u2581friendly": 6586, "\u2581Ger": 6587, "\u2581m\u00e4nniskan": 6588, "\u2581spot": 6589, "\u2581d\u00e5ligt": 6590, "\u2581moderna": 6591, "\u25811.6": 6592, "\u2581deals": 6593, "\u2581programs": 6594, "\u2581ECU": 6595, "\u2581turnover": 6596, "\u2581diameter": 6597, "\u2581upph\u00e4vande": 6598, "\u2581compatible": 6599, "\u2581Belgium": 6600, "\u2581Luxemburg": 6601, "\u2581spa": 6602, "ising": 6603, "ras": 6604, "\u2581serum": 6605, "operation": 6606, "\u2581measured": 6607, "\u2581fraud": 6608, "\u2581uppe": 6609, "und": 6610, "82": 6611, "\u2581traditionella": 6612, "\u2581Mon": 6613, "\u2581bearbetning": 6614, "\u2581driva": 6615, "ici": 6616, "\u2581upper": 6617, "\u2581\u00f6vrigt": 6618, "\u2581launched": 6619, "\u2581tonnes": 6620, "\u2581k\u00e4nslor": 6621, "\u2581Put": 6622, "\u2581f\u00f6retagets": 6623, "\u2581ledare": 6624, "artikel": 6625, "\u2581tj\u00e4nsten": 6626, "\u2581Ya": 6627, "\u2581lock": 6628, "\u2581till\u00e5ta": 6629, "\u2581granting": 6630, "\u2581l\u00e4rare": 6631, "satt": 6632, "\u2581loved": 6633, "\u2581route": 6634, "\u2581records": 6635, "r\u00f6r": 6636, "\u2581Innovation": 6637, "\u2581praktiska": 6638, "\u2581renal": 6639, "\u2581Port": 6640, "\u2581discussions": 6641, "\u2581identitet": 6642, "ya": 6643, "\u2581brothers": 6644, "\u2581star": 6645, "\u2581papper": 6646, "\u00e4ck": 6647, "\u2581examined": 6648, "varor": 6649, "\u2581finding": 6650, "omr\u00e5de": 6651, "\u2581slutlig": 6652, "\u2581ratio": 6653, "data": 6654, "\u2581v\u00e4rden": 6655, "\u2581finished": 6656, "\u258191": 6657, "\u2581nyheter": 6658, "\u2581careful": 6659, "\u2581v\u00e4nda": 6660, "\u258167": 6661, "\u2581equality": 6662, "\u2581wear": 6663, "\u2581Kommer": 6664, "\u2581l\u00e4ngs": 6665, "\u2581reaction": 6666, "\u2581fr": 6667, "\u2581utrymme": 6668, "\u2581street": 6669, "format": 6670, "\u2581Everything": 6671, "\u2581soil": 6672, "\u2581kontrolleras": 6673, "izing": 6674, "\u2581universal": 6675, "\u2581platform": 6676, "\u2581artikeln": 6677, "iner": 6678, "\u2581skol": 6679, "PL": 6680, "\u2581Fr\u00e5ga": 6681, "\u2581principerna": 6682, "NING": 6683, "\u2581flu": 6684, "Mo": 6685, "\u2581noga": 6686, "\u2581Em": 6687, "\u2581sight": 6688, "To": 6689, "\u2581jordbruket": 6690, "\u2581\u00e4ndrade": 6691, "\u2581taxation": 6692, "\u2581Stars": 6693, "\u2581smak": 6694, "\u2581vinst": 6695, "\u2581vikten": 6696, "lock": 6697, "\u2581brist": 6698, "\u2581lett": 6699, "\u2581Ze": 6700, "\u2581fault": 6701, "nor": 6702, "\u2581perspective": 6703, "grad": 6704, "\u2581suspension": 6705, "Och": 6706, "\u258183": 6707, "\u2581vita": 6708, "\u2581Egypt": 6709, "\u2581balans": 6710, "\u2581Belgien": 6711, "\u2581anm\u00e4lan": 6712, "\u2581shoot": 6713, "\u2581Barn": 6714, "\u2581topp": 6715, "\u2581extend": 6716, "\u2581Case": 6717, "ys": 6718, "\u2581Yet": 6719, "bart": 6720, "bol": 6721, "\u2581Both": 6722, "non": 6723, "cer": 6724, "\u2581designated": 6725, "\u2581hereby": 6726, "house": 6727, "\u2581hall": 6728, "\u2581VIII": 6729, "\u2581Grand": 6730, "\u2581importen": 6731, "bal": 6732, "\u2581qualified": 6733, "ay": 6734, "\u2581classification": 6735, "CH": 6736, "\u2581verklig": 6737, "handel": 6738, "\u2581totally": 6739, "\u2581photo": 6740, "\u2581urval": 6741, "andet": 6742, "\u2581F\u00f6rutom": 6743, "\u2581ladda": 6744, "\u2581heaven": 6745, "\u2581count": 6746, "\u2581gap": 6747, "\u2581zone": 6748, "\u2581undrar": 6749, "\u2581institutional": 6750, "\u2581ansvaret": 6751, "\u2581verification": 6752, "Var": 6753, "\u2581mikro": 6754, "\u2581jobba": 6755, "last": 6756, "\u2581hostels": 6757, "\u2581Cooperation": 6758, "\u2581maintained": 6759, "\u2581saken": 6760, "\u2581praktiken": 6761, "gin": 6762, "\u2581tak": 6763, "\u2581Opinion": 6764, "inen": 6765, "\u2581familjer": 6766, "\u2581skaffa": 6767, "\u2581wild": 6768, "\u2581Museum": 6769, "\u2581explained": 6770, "\u2581tids": 6771, "cha": 6772, "cia": 6773, "unders\u00f6kning": 6774, "\u2581schools": 6775, "\u2581F\u00f6lj": 6776, "\u2581procurement": 6777, "\u2581situated": 6778, "\u2581et": 6779, "\u2581flag": 6780, "\u2581Moses": 6781, "\u2581m\u00f6tet": 6782, "\u2581stupid": 6783, "\u2581famous": 6784, "\u2581symtom": 6785, "light": 6786, "\u2581Ku": 6787, "\u2581Afghanistan": 6788, "\u2581ansvariga": 6789, "\u2581dr": 6790, "\u2581holiday": 6791, "\u2581maskin": 6792, "\u2581m\u00e5ngfald": 6793, "dar": 6794, "\u2581tv": 6795, "\u2581bevilja": 6796, "\u2581denne": 6797, "\u2581collaboration": 6798, "\u2581geografiska": 6799, "\u2581race": 6800, "\u2581studera": 6801, "\u2581navigation": 6802, "\u2581egendom": 6803, "\u2581pollution": 6804, "\u2581Korea": 6805, "\u2581judicial": 6806, "\u2581Saturday": 6807, "\u2581achieving": 6808, "\u2581\u00f6verensst\u00e4mmer": 6809, "\u2581kategorier": 6810, "\u2581kvartalet": 6811, "oxi": 6812, "\u2581normally": 6813, "\u2581nine": 6814, "IG": 6815, "\u2581represents": 6816, "book": 6817, "tte": 6818, "\u2581normala": 6819, "\u2581kaffe": 6820, "\u2581hustru": 6821, "sf\u00f6reskrifter": 6822, "\u2581changing": 6823, "\u2581calendar": 6824, "\u2581\u00e4ndrat": 6825, "\u25812003.": 6826, "\u2581spridning": 6827, "\u25812017.": 6828, "\u2581believes": 6829, "\u2581[3]": 6830, "FF": 6831, "\u2581Software": 6832, "\u2581absolutely": 6833, "\u2581slutsatsen": 6834, "\u2581p\u00e5verkas": 6835, "\u2581stil": 6836, "SK": 6837, "\u2581Could": 6838, "\u2581GEMENSKAPERNAS": 6839, "\u2581thereby": 6840, "\u2581bag": 6841, "\u2581Canada": 6842, "s\u00e5": 6843, "\u2581Kat": 6844, "\u2581d\u00e4ribland": 6845, "\u2581tusen": 6846, "\u2581tree": 6847, "\u2581bonus": 6848, "\u2581candidate": 6849, "\u2581quota": 6850, "\u2581Registrera": 6851, "eringen": 6852, "\u2581COMMUNITIES": 6853, "\u2581byr\u00e5n": 6854, "\u2581130": 6855, "\u2581smaller": 6856, "\u2581thousand": 6857, "\u2581panel": 6858, "\u2581parlament": 6859, "\u2581situationer": 6860, "\u2581weapons": 6861, "\u2581sports": 6862, "\u2581uppt\u00e4cka": 6863, "\u2581Endast": 6864, "\u2581anv\u00e4nde": 6865, "\u2581kriterierna": 6866, "\u2581calculation": 6867, "\u25812018.": 6868, "\u2581bottom": 6869, "\u2581h\u00e4lften": 6870, "\u2581bought": 6871, "\u2581meteo": 6872, "\u2581l\u00f6n": 6873, "\u2581Continue": 6874, "\u2581specifikationer": 6875, "\u2581\u00f6verl\u00e4mna": 6876, "kal": 6877, "\u2581Rum\u00e4nien": 6878, "r\u00e5": 6879, "\u2581Lind": 6880, "stan": 6881, "well": 6882, "\u2581skapade": 6883, "\u2581ti": 6884, "\u2581forum": 6885, "\u2581Active": 6886, "\u2581rare": 6887, "\u2581Real": 6888, "\u2581seriously": 6889, "\u2581n\u00e4rmaste": 6890, "bul": 6891, "Men": 6892, "\u2581threat": 6893, "cell": 6894, "\u2581Tid": 6895, "\u2581mandate": 6896, "\u2581f\u00f6rlorade": 6897, "\u2581USD": 6898, "\u2581n\u00e4mns": 6899, "\u2581barnet": 6900, "huset": 6901, "\u2581increasingly": 6902, "ably": 6903, "\u2581transition": 6904, "delar": 6905, "\u2581Mom": 6906, "gren": 6907, "\u2581noise": 6908, "\u2581Department": 6909, "\u2581rapid": 6910, "\u2581transporter": 6911, "\u2581Tenn": 6912, "\u2581pages": 6913, "\u2581booking": 6914, "\u25811/": 6915, "\u2581involvement": 6916, "\u2581justified": 6917, "\u2581Sim": 6918, "\u2581fr\u00e5gar": 6919, "air": 6920, "\u2581slow": 6921, "l\u00f6sning": 6922, "\u2581component": 6923, "\u2581marken": 6924, "\u2581quiet": 6925, "\u2581budskap": 6926, "\u2581dricka": 6927, "\u2581r\u00f6relse": 6928, "\u25815:": 6929, "\u2581sensitive": 6930, "\u2581\u00e4renden": 6931, "tern": 6932, "\u2581decreased": 6933, "\u2581diskussion": 6934, "somr\u00e5de": 6935, "\u2581Lule\u00e5": 6936, "\u2581fulfil": 6937, "\u2581Folk": 6938, "ili": 6939, "\u2581shut": 6940, "\u2581Dublin": 6941, "\u2581identity": 6942, "tom": 6943, "\u2581decrease": 6944, "\u2581marknadsf\u00f6ring": 6945, "\u2581regularly": 6946, "\u2581orsaka": 6947, "\u2581suggest": 6948, "rd": 6949, "ks": 6950, "-19": 6951, "\u2581Gran": 6952, "\u2581till\u00e5tna": 6953, "\u2581subsequent": 6954, "\u2581best\u00e5ende": 6955, "\u2581anv\u00e4nt": 6956, "\u2581Regions": 6957, "\u2581Regionkommitt\u00e9n": 6958, "\u2581ingredients": 6959, "grund": 6960, "\u2581inner": 6961, "\u2581Android": 6962, "\u2581reply": 6963, "\u2581strategiska": 6964, "\u2581Tuesday": 6965, "rot": 6966, "\u2581processed": 6967, "\u2581kontrollen": 6968, "\u2581stannar": 6969, "\u2581governing": 6970, "\u2581politiskt": 6971, "cker": 6972, "2018": 6973, "\u2581Procedure": 6974, "\u2581allvar": 6975, "\u2581Lund": 6976, "ration": 6977, "\u2581saved": 6978, "\u2581Date": 6979, "\u2581releases": 6980, "\u2581anl\u00e4ggning": 6981, "\u2581lists": 6982, "\u2581Ram": 6983, "\u2581sum": 6984, "\u2581verkligt": 6985, "\u2581lik": 6986, "\u2581\u00f6gonblick": 6987, "\u2581Bet": 6988, "\u2581hotellet": 6989, "\u2581narkotika": 6990, "$": 6991, "\u2581Wednesday": 6992, "\u2581Royal": 6993, "varande": 6994, "\u2581serie": 6995, "\u2581asylum": 6996, "\u2581DNA": 6997, "\u2581f\u00e4ngelse": 6998, "j\u00e4": 6999, "\u2581Reviews": 7000, "\u2581h\u00f6jd": 7001, "konventionen": 7002, "\u2581recommendation": 7003, "\u2581uppr\u00e4tth\u00e5lla": 7004, "\u2581anyway": 7005, "\u2581reklam": 7006, "\u2581sj\u00e4l": 7007, "\u2581Three": 7008, "relaterade": 7009, "\u2581Christmas": 7010, "\u2581definieras": 7011, "\u2581t\u00e5g": 7012, "skrav": 7013, "\u2581potentiella": 7014, "\u2581skatt": 7015, "\u2581kris": 7016, "\u2581compromise": 7017, "\u2581Personal": 7018, "\u2581j": 7019, "\u2581125": 7020, "\u2581strategier": 7021, "\u2581Quality": 7022, "ml": 7023, "\u2581pleased": 7024, "\u2581Pri": 7025, "\u2581flexibility": 7026, "\u2581parti": 7027, "\u2581murder": 7028, "put": 7029, "\u2581Western": 7030, "\u2581represented": 7031, "\u2581uppgick": 7032, "g\u00f6r": 7033, "\u2581winter": 7034, "\u2581toward": 7035, "\u2581owner": 7036, "\u2581packaging": 7037, "\u2581core": 7038, "\u2581skjuta": 7039, "\u2581Digital": 7040, "cept": 7041, "\u2581v\u00e4xter": 7042, "\u2581casino": 7043, "\u2581br\u00f6der": 7044, "\u2581\u00f6vers\u00e4ttning": 7045, "\u2581inf\u00f6randet": 7046, "\u2581Vice": 7047, "\u2581roligt": 7048, "\u2581Pan": 7049, "\u00e4g": 7050, "\u2581audit": 7051, "\u2581rena": 7052, "\u2581mental": 7053, "ima": 7054, "\u258104": 7055, "organ": 7056, "h\u00e4nvisat": 7057, "\u2581speciella": 7058, "\u2581TS": 7059, "\u2581trials": 7060, "\u2581manufacturers": 7061, "plats": 7062, "top": 7063, "sf\u00f6rfarandet": 7064, "\u2581Hand": 7065, "\u2581Vin": 7066, "\u2581preparations": 7067, "ue": 7068, "\u25812)": 7069, "\u2581sj\u00f6": 7070, "namn": 7071, "sky": 7072, "\u2581letar": 7073, "blad": 7074, "\u2581tvivel": 7075, "TION": 7076, "\u2581monetary": 7077, "\u2581m\u00e4rkning": 7078, "8,": 7079, "\u2581Center": 7080, "\u2581r\u00f6sta": 7081, "\u258169": 7082, "\u2581k\u00f6pt": 7083, "\u2581incorporated": 7084, "rig": 7085, "\u2581programmen": 7086, "\u2581EP": 7087, "ware": 7088, "\u2581(15": 7089, "\u2581harm": 7090, "\u2581riktar": 7091, "\u2581quotas": 7092, "mus": 7093, "\u2581Annual": 7094, "\u2581School": 7095, "\u2581Parlamentet": 7096, "ace": 7097, "\u25814.5": 7098, "\u2581Box": 7099, "St": 7100, "\u2581Structural": 7101, "\u2581Out": 7102, "\u2581skapas": 7103, "kod": 7104, "\u2581begr\u00e4nsade": 7105, "\u2581sustainability": 7106, "\u2581Monday": 7107, "\u2581lies": 7108, "\u2581enheten": 7109, "\u2581licens": 7110, "arbete": 7111, "\u2581feedback": 7112, "\u2581+46": 7113, "produktionen": 7114, "\u2581interpretation": 7115, "\u258125.6.201": 7116, "\u2581expression": 7117, "\u2581inclusion": 7118, "\u2581Agriculture": 7119, "1.1": 7120, "\u2581cast": 7121, "\u2581Herre": 7122, "\u2581milit\u00e4r": 7123, "\u2581appeal": 7124, "\u2581cheap": 7125, "\u2581mar": 7126, "\u2581communicate": 7127, "-8": 7128, "\u2581ordf\u00f6randen": 7129, "\u2581\u00e5tagande": 7130, "\u2581samarbets": 7131, "\u2581adult": 7132, "\u2581classified": 7133, "nit": 7134, "\u2581style": 7135, "\u2581Sil": 7136, "\u2581st\u00e5nd": 7137, "\u2581Single": 7138, "\u2581codes": 7139, "\u2581fixa": 7140, "\u2581sheet": 7141, "\u2581skiljer": 7142, "\u2581veterin\u00e4r": 7143, "\u2581contrary": 7144, "\u2581wines": 7145, "Article": 7146, "\u25811734": 7147, "\u2581engagemang": 7148, "Svenska": 7149, "\u2581reception": 7150, "\u2581passengers": 7151, "\u2581fakta": 7152, "stid": 7153, "\u2581WiFi": 7154, "\u2581kod": 7155, "ever": 7156, "via": 7157, "\u2581campaign": 7158, "kostnader": 7159, "\u25811234/2007": 7160, "\u2581Rating": 7161, "work": 7162, "referred": 7163, "\u2581ing\u00e5ende": 7164, "\u2581objekt": 7165, "\u2581utf\u00f6r": 7166, "spolitik": 7167, "\u2581\u00f6verallt": 7168, "\u2581Vidare": 7169, "\u2581om\u00f6jligt": 7170, "\u25811989": 7171, "\u2581skyddet": 7172, "\u2581Abraham": 7173, "\u2581Rome": 7174, "\u2581pregnant": 7175, "\u2581italienska": 7176, "\u2581fa": 7177, "\u2581involve": 7178, "\u2581Women": 7179, "\u2581Blog": 7180, "\u2581reliable": 7181, "3.": 7182, "\u2581button": 7183, "\u2581spoke": 7184, "\u2581suffering": 7185, "nn": 7186, "\u2581housing": 7187, "\u2581prestanda": 7188, "\u2581findings": 7189, "\u2581African": 7190, "\u2581utf\u00f6ras": 7191, "uv": 7192, "\u2581p\u00e5g\u00e5ende": 7193, "\u2581liver": 7194, "r\u00e5d": 7195, "\u2581beviljats": 7196, "\u2581popul\u00e4ra": 7197, "\u2581resistance": 7198, "vig": 7199, "\u2581harmonisering": 7200, "\u2581stored": 7201, "\u2581doses": 7202, "\u2581varav": 7203, "sidan": 7204, "\u2581bokning": 7205, "\u2581Gal": 7206, "\u2581\u00e4lskade": 7207, "5)": 7208, "\u2581Um": 7209, "\u2581dubbel": 7210, "mann": 7211, "\u2581avsett": 7212, "\u2581vit": 7213, "ali": 7214, "\u2581transaction": 7215, "\u25811.3": 7216, "ney": 7217, "\u2581jurisdiction": 7218, "\u2581pull": 7219, "\u2581b\u00f6rjat": 7220, "\u2581genomsnitt": 7221, "kr": 7222, "\u2581Bilaga": 7223, "\u2581kunskaper": 7224, "\u2581mail": 7225, "with": 7226, "\u2581slutar": 7227, "jag": 7228, "\u2581notify": 7229, "sil": 7230, "\u2581Asia": 7231, "\u2581slog": 7232, "\u2581wonder": 7233, "\u2581drawing": 7234, "\u25811.3.1": 7235, "\u2581relatively": 7236, "\u25814.4": 7237, "\u2581Indeed": 7238, "\u2581f\u00f6rb\u00e4ttringar": 7239, "vert": 7240, "holm": 7241, "\u2581lands": 7242, "\u2581F\u00e5": 7243, "fredsst\u00e4llande": 7244, "get": 7245, "\u2581tradition": 7246, "\u2581deleted": 7247, "\u2581supplied": 7248, "\u2581kalla": 7249, "\u2581guests": 7250, "\u2581Head": 7251, "\u2581Plus": 7252, "\u2581sist": 7253, "\u2581faller": 7254, "\u2581sm\u00e4rta": 7255, "\u2581programvara": 7256, "\u2581Global": 7257, "\u2581counter": 7258, "\u2581preliminary": 7259, "DLL": 7260, "splan": 7261, "\u2581height": 7262, "\u2581Live": 7263, "MI": 7264, "\u2581Wall": 7265, "ane": 7266, "\u2581byta": 7267, "\u2581offentligg\u00f6ra": 7268, "\u2581possibilities": 7269, "\u2581refers": 7270, "\u2581female": 7271, "\u2581fina": 7272, "\u2581konsumenter": 7273, "\u2581shower": 7274, "\u2581\u00e4ter": 7275, "\u2581adults": 7276, "\u2581institutionerna": 7277, "\u2581sannolikt": 7278, "He": 7279, "\u2581suffer": 7280, "ema": 7281, "t\u00f6r": 7282, "\u2581demokratiska": 7283, "\u2581hemsida": 7284, "\u2581investerare": 7285, "\u2581\u00f6": 7286, "\u2581speech": 7287, "://": 7288, "\u2581id\u00e9er": 7289, "\u2581sp\u00e4nnande": 7290, "\u2581AVS": 7291, "\u2581kyrkan": 7292, "\u2581bolag": 7293, "\u2581ongoing": 7294, "\u2581digitala": 7295, "\u2581Name": 7296, "\u2581award": 7297, "ero": 7298, "nom": 7299, "\u2581images": 7300, "\u2581attached": 7301, "\u2581tr\u00e4d": 7302, "\u2581kar": 7303, "\u2581niv\u00e5n": 7304, "\u2581Hos": 7305, "\u2581cards": 7306, "missionsledamot": 7307, "\u00e5ng": 7308, "\u2581damn": 7309, "\u2581Ve": 7310, "\u2581sons": 7311, "\u2581relevance": 7312, "\u2581farliga": 7313, "\u2581depression": 7314, "\u2581effekten": 7315, "\u2581Ladda": 7316, "\u2581arg": 7317, "\u2581volym": 7318, "\u2581leaves": 7319, "\u2581garantier": 7320, "\u2581strid": 7321, "\u2581opposition": 7322, "istic": 7323, "\u2581omr\u00e5dena": 7324, "\u2581rapportera": 7325, "\u2581Sc": 7326, "-15": 7327, "\u2581Welcome": 7328, "\u2581betalnings": 7329, "AP": 7330, "\u2581Eu": 7331, "\u2581Amendment": 7332, "\u25812000,": 7333, "af": 7334, "\u2581Karl": 7335, "\u2581comfortable": 7336, "\u2581walking": 7337, "\u2581undertaken": 7338, "\u2581Dar": 7339, "\u2581leg": 7340, "\u2581sitta": 7341, "\u2581disk": 7342, "\u2581personnel": 7343, "\u2581moral": 7344, "\u2581j\u00e4tte": 7345, "\u2581Agenda": 7346, "\u2581providers": 7347, "\u2581HD": 7348, "\u258103": 7349, "ific": 7350, "ende": 7351, "\u2581flexible": 7352, "\u2581elektronisk": 7353, "\u2581skriftlig": 7354, "\u2581career": 7355, "\u2581Import": 7356, "\u2581ringer": 7357, "\u2581tourism": 7358, "\u2581aktier": 7359, "\u2581securities": 7360, "\u2581liability": 7361, "Nej": 7362, "\u2581nearly": 7363, "\u2581caught": 7364, "\u2581skador": 7365, "\u2581examples": 7366, "\u2581sl\u00e5r": 7367, "\u2581university": 7368, "\u2581mix": 7369, "\u2581Vo": 7370, "\u2581Pat": 7371, "\u2581skulder": 7372, "aste": 7373, "\u2581]": 7374, "sverksamhet": 7375, "\u2581strategin": 7376, "\u2581kommunikations": 7377, "\u25812001.": 7378, "pack": 7379, "\u2581n\u00f6d": 7380, "\u2581kriget": 7381, "\u2581congregation": 7382, "oni": 7383, "\u2581losses": 7384, "ath": 7385, "\u2581command": 7386, "\u2581tydliga": 7387, "\u2581brings": 7388, "\u2581rep": 7389, "\u2581utvecklings": 7390, "\u25812018,": 7391, "\u2581syftet": 7392, "dumping": 7393, "Co": 7394, "\u2581F\u00f6rordningen": 7395, "\u2581Directives": 7396, "\u2581f\u00f6rsiktighet": 7397, "\u2581landets": 7398, "\u2581Cat": 7399, "\u2581tj\u00e4nar": 7400, "\u2581tider": 7401, "\u2581Bor": 7402, "\u2581depending": 7403, "\u2581Guidelines": 7404, "\u2581behandlar": 7405, "\u2581shop": 7406, "\u258191/414": 7407, "\u2581mild": 7408, "PR": 7409, "\u2581rejected": 7410, "\u2581definitions": 7411, "\u2581normer": 7412, "\u2581discharge": 7413, "\u2581evolution": 7414, "\u2581stopped": 7415, "\u2581exemption": 7416, "\u2581lita": 7417, "\u2581worship": 7418, "tiska": 7419, "\u2581110": 7420, "\u2581ride": 7421, "\u2581fees": 7422, "ANDE": 7423, "down": 7424, "\u2581fee": 7425, "\u2581Sand": 7426, "\u2581demonstrated": 7427, "\u2581leaders": 7428, "\u2581Kroatien": 7429, "\u2581Video": 7430, "\u2581\u00e4rendet": 7431, "\u2581inflytande": 7432, "\u2581sides": 7433, "\u2581officials": 7434, "\u2581f\u00f6rhandlingar": 7435, "mes": 7436, "\u2581deemed": 7437, "\u2581\u00f6n": 7438, "\u25812009,": 7439, "\u2581studenter": 7440, "\u2581kompromiss": 7441, "forskning": 7442, "\u2581lays": 7443, "\u2581Hostel": 7444, "500": 7445, "\u2581entirely": 7446, "\u2581Main": 7447, "\u2581bro": 7448, "\u2581gr\u00e4nserna": 7449, "\u2581Based": 7450, "\u2581avst\u00e5nd": 7451, "nis": 7452, "\u2581Mag": 7453, "\u2581inf\u00f6rande": 7454, "\u2581Forum": 7455, "\u2581Year": 7456, "\u2581ON": 7457, "\u2581anv\u00e4nts": 7458, "\u2581tablets": 7459, "\u2581edge": 7460, "\u2581akt": 7461, "\u2581Ms": 7462, "bor": 7463, "\u2581NAS": 7464, "\u2581S\u00e5dana": 7465, "beskrivningar": 7466, "\u2581colour": 7467, "\u258150%": 7468, "\u2581f\u00f6rlora": 7469, "ette": 7470, "\u2581uppfyllda": 7471, "\u2581profile": 7472, "\u2581Foundation": 7473, "mod": 7474, "\u2581f\u00f6rebygga": 7475, "olja": 7476, "\u2581lived": 7477, "\u2581transitional": 7478, "\u2581f\u00f6ljde": 7479, "\u2581Tar": 7480, "\u2581voting": 7481, "\u2581appropriations": 7482, "\u2581euron": 7483, "\u2581Actually": 7484, "\u2581m\u00e5tt": 7485, "\u2581j\u00e4rnv\u00e4gs": 7486, "sf\u00f6rfarande": 7487, "\u2581certificates": 7488, "\u2581Lin": 7489, "\u2581certification": 7490, "\u2581bound": 7491, "\u2581Ditt": 7492, "\u2581uttryckt": 7493, "\u2581propose": 7494, "\u2581j\u00e4rn": 7495, "eg": 7496, "\u2581Mal": 7497, "\u2581utv\u00e4rdera": 7498, "\u2581minimi": 7499, "\u2581Cyprus": 7500, "62": 7501, "\u2581hamnar": 7502, "life": 7503, "\u2581\u00e5sikt": 7504, "upplevelse": 7505, "\u2581taget": 7506, "\u2581Auto": 7507, "\u2581f\u00f6resl\u00e5": 7508, "\u2581honey": 7509, "\u2581CE": 7510, "\u2581Full": 7511, "\u2581verkst\u00e4llande": 7512, "\u2581grundf\u00f6rordning": 7513, "bad": 7514, "\u2581fortsatte": 7515, "\u2581f\u00f6rpackning": 7516, "Varf\u00f6r": 7517, "uppgifter": 7518, "\u2581dusch": 7519, "\u00ed": 7520, "\u2581shape": 7521, "\u2581Foreign": 7522, "\u2581Mont": 7523, "\u2581nio": 7524, "FI": 7525, "TOL": 7526, "\u2581valt": 7527, "burg": 7528, "\u2581terrorist": 7529, "\u2581Photo": 7530, "\u2581Mike": 7531, "utbildning": 7532, "\u2581Ansvarig": 7533, "\u2581tillverkaren": 7534, "\u2581skatter": 7535, "\u2581kv\u00e4llen": 7536, "\u2581Multi": 7537, "\u2581comfort": 7538, "run": 7539, "sis": 7540, "\u2581oms\u00e4ttning": 7541, "\u2581sharing": 7542, "\u2581intention": 7543, "l\u00f6st": 7544, "\u2581fl": 7545, "\u2581\u00f6ppenhet": 7546, "cause": 7547, "dig": 7548, "\u2581server": 7549, "ford": 7550, "\u2581l\u00e4genhet": 7551, "\u2581servants": 7552, "tiden": 7553, "\u2581str": 7554, "\u2581killen": 7555, "\u2581utg\u00e5ngspunkt": 7556, "\u2581betydligt": 7557, "\u2581danger": 7558, "\u2581representation": 7559, "\u2581solidarity": 7560, "\u2581beteende": 7561, "fo": 7562, "\u2581(10": 7563, "\u2581typgodk\u00e4nnande": 7564, "\u2581avsedd": 7565, "\u2581socialt": 7566, "ingen": 7567, "\u2581flicka": 7568, "\u2581reaktion": 7569, "\u2581repeal": 7570, "\u2581best\u00e4mt": 7571, "\u2581transferred": 7572, "\u2581Society": 7573, "\u2581Bulgarien": 7574, "\u2581imported": 7575, "\u2581Perhaps": 7576, "ory": 7577, "\u2581Bulgaria": 7578, "\u2581revised": 7579, "\u2581Hela": 7580, "\u2581breakfast": 7581, "\u2581determination": 7582, "\u2581K\u00e4nn": 7583, "\u2581lycka": 7584, "\u2581horse": 7585, "savtal": 7586, "\u2581historiska": 7587, "\u2581lu": 7588, "\u2581ock": 7589, "\u2581Place": 7590, "\u2581reformer": 7591, "2007": 7592, "\u2581fonden": 7593, "\u2581K\u00e4lla": 7594, "\u2581hastighet": 7595, "\u2581luck": 7596, "GA": 7597, "\u2581Call": 7598, "\u2581symptom": 7599, "\u2581river": 7600, "cul": 7601, "\u2581hundreds": 7602, "\u2581Deras": 7603, "\u2581collective": 7604, "\u2581cream": 7605, "ball": 7606, "\u2581farligt": 7607, "\u2581proud": 7608, "\u2581Gre": 7609, "\u2581nedsatt": 7610, "bu": 7611, "\u2581pointed": 7612, "\u2581filter": 7613, "\u2581occurred": 7614, "\u2581\u00e5stadkomma": 7615, "gent": 7616, "\u2581divided": 7617, "\u2581voluntary": 7618, "\u2581Map": 7619, "\u2581Titta": 7620, "\u2581Page": 7621, "bolag": 7622, "\u2581mord": 7623, "\u2581centres": 7624, "\u2581sorts": 7625, "\u2581settlement": 7626, "rant": 7627, "\u2581f\u00f6ruts\u00e4ttningar": 7628, "\u2581rot": 7629, "slut": 7630, "eb": 7631, "\u2581vanlig": 7632, "\u2581komponenter": 7633, "\u2581v\u00e4rre": 7634, "\u2581willing": 7635, "\u2581grekiska": 7636, "\u2581M\u00e5l": 7637, "\u2581s\u00f6kanden": 7638, "\u2581P\u00c5": 7639, "\u2581egenskap": 7640, "\u2581r\u00f6ra": 7641, "iff": 7642, "\u2581Croatia": 7643, "\u2581Something": 7644, "\u2581v\u00e4sentliga": 7645, "\u2581g\u00e4llde": 7646, "\u2581satte": 7647, "\u2581journey": 7648, "\u2581storm": 7649, "\u2581warning": 7650, "\u2581kvaliteten": 7651, "\u2581MP": 7652, "aff": 7653, "\u2581Content": 7654, "\u2581planering": 7655, "rika": 7656, "\u2581returned": 7657, "\u25812004,": 7658, "\u2581answered": 7659, "1998": 7660, "\u2581manager": 7661, "\u258111,": 7662, "\u2581Airport": 7663, "oli": 7664, "\u2581descriptions": 7665, "\u2581database": 7666, "\u2581KOMMISSION": 7667, "\u2581(6)": 7668, "\u2581andliga": 7669, "\u2581gear": 7670, "\u2581d\u00e5lig": 7671, "\u2581facility": 7672, "\u2581demands": 7673, "2003": 7674, "l\u00e5n": 7675, "\u2581anybody": 7676, "\u2581bed\u00f6mningen": 7677, "ort": 7678, "\u2581operativa": 7679, "\u2581Cha": 7680, "\u2581clearance": 7681, "\u2581njuta": 7682, "\u2581dras": 7683, "rk": 7684, "vol": 7685, "\u2581antagandet": 7686, "\u2581f\u00f6ljaktligen": 7687, "bok": 7688, "\u2581inkluderar": 7689, "\u2581disciples": 7690, "ments": 7691, "\u2581Big": 7692, "\u25812008,": 7693, "SC": 7694, "\u2581kakor": 7695, "\u2581tyv\u00e4rr": 7696, "\u2581f\u00f6retagens": 7697, "\u2581F\u00f6rsta": 7698, "\u2581Remember": 7699, "\u258115-74": 7700, "\u2581biggest": 7701, "ich": 7702, "CR": 7703, "made": 7704, "\u2581amend": 7705, "\u2581starkare": 7706, "\u2581nationals": 7707, "\u2581terrace": 7708, "\u2581fattigdom": 7709, "finansiering": 7710, "\u2581fann": 7711, "\u2581bes\u00f6ka": 7712, "\u2581riktig": 7713, "\u2581Gra": 7714, "\u2581mun": 7715, "\u2581replace": 7716, "\u2581tables": 7717, "\u2581solidaritet": 7718, "\u2581mountain": 7719, "\u2581verka": 7720, "\u2581fighting": 7721, "\u2581f\u00f6resl\u00e5s": 7722, "\u2581em": 7723, "\u2581kulturella": 7724, "\u2581styrelse": 7725, "\u2581ringde": 7726, "\u2581Club": 7727, "\u2581ledamot": 7728, "\u2581rekommenderade": 7729, "\u2581upph\u00f6ra": 7730, "\u2581varierar": 7731, "\u2581pop": 7732, "\u2581hund": 7733, "\u2581male": 7734, "\u2581onda": 7735, "\u2581leads": 7736, "\u2581fixing": 7737, "\u2581village": 7738, "king": 7739, "\u2581welcomes": 7740, "fria": 7741, "\u2581universe": 7742, "hamn": 7743, "\u2581huvudsakliga": 7744, "ped": 7745, "\u2581Additional": 7746, "\u2581regarded": 7747, "g\u00e5ende": 7748, "h\u00e5ll": 7749, "\u2581tycks": 7750, "\u2581crew": 7751, "aria": 7752, "\u2581Volvo": 7753, "\u2581sammantr\u00e4de": 7754, "\u2581brister": 7755, "\u2581summary": 7756, "\u2581infection": 7757, "\u2581Jean": 7758, "\u2581meters": 7759, "\u2581l\u00e4get": 7760, "\u2581Forskning": 7761, "\u2581hamn": 7762, "\u2581Twitter": 7763, "\u2581underlying": 7764, "sum": 7765, "\u2581Cypern": 7766, "\u25816:": 7767, "-01": 7768, "\u2581Helsingfors": 7769, "tre": 7770, "\u2581seconds": 7771, "\u2581elegant": 7772, "5-0": 7773, "\u2581beings": 7774, "gli": 7775, "\u2581clothes": 7776, "h\u00f6g": 7777, "\u2581tron": 7778, "\u2581f\u00f6rsamlingen": 7779, "-20": 7780, "ound": 7781, "\u2581desto": 7782, "\u2581worst": 7783, "\u2581\u00e4ga": 7784, "\u2581tvungen": 7785, "/2": 7786, "\u2581stranden": 7787, "\u2581anywhere": 7788, "\u2581Saint": 7789, "\u2581enkla": 7790, "\u2581formula": 7791, "rist": 7792, "\u2581inkomster": 7793, "\u2581meddela": 7794, "MO": 7795, "\u2581sections": 7796, "\u2581recital": 7797, "els": 7798, "\u2581Thomas": 7799, "ds": 7800, "oxid": 7801, "\u2581Mail": 7802, "\u2581boken": 7803, "\u2581Instruktion": 7804, "\u2581Ukraina": 7805, "\u2581vakt": 7806, "\u2581PDF": 7807, "TE": 7808, "\u25811999.": 7809, "\u2581behaviour": 7810, "\u2581browser": 7811, "\u2581starta": 7812, "\u2581Stay": 7813, "\u2581selling": 7814, "\u2581cap": 7815, "\u2581Long": 7816, "\u2581Customs": 7817, "\u2581processer": 7818, "\u2581genomf\u00f6rts": 7819, "\u2581gr\u00e4nsen": 7820, "\u2581trygghet": 7821, "\u2581CN": 7822, "\u2581destroy": 7823, "\u2581expertise": 7824, "\u2581s\u00e5n": 7825, "\u2581Beach": 7826, "\u2581Was": 7827, "\u2581brukar": 7828, "\u2581max": 7829, "v\u00e4gen": 7830, "ore": 7831, "\u2581naturen": 7832, "\u25812008)": 7833, "\u2581fill": 7834, "\u2581collect": 7835, "fartyg": 7836, "\u2581Station": 7837, "\u2581stone": 7838, "str": 7839, "\u2581utbildnings": 7840, "samma": 7841, "\u2581L\u00e4mna": 7842, "sko": 7843, "\u2581Ministry": 7844, "\u25812005,": 7845, "\u2581Za": 7846, "enhet": 7847, "\u2581angivna": 7848, "\u2581lin": 7849, "\u2581preparing": 7850, "\u2581labelling": 7851, "\u2581Sun": 7852, "\u2581HIV": 7853, "\u2581noggrant": 7854, "v\u00e4rden": 7855, "TP": 7856, "n\u00e4t": 7857, "\u2581cy": 7858, "\u2581listan": 7859, "\u2581realize": 7860, "\u25812.3": 7861, "\u2581sjukv\u00e5rd": 7862, "\u2581\u00f6msesidigt": 7863, "\u2581flexibilitet": 7864, "\u2581Stanna": 7865, "\u2581perspektiv": 7866, "atur": 7867, "wer": 7868, "\u2581Win": 7869, "\u2581http": 7870, "\u2581Fu": 7871, "\u2581bes\u00f6kare": 7872, "\u2581rymd": 7873, "\u2581bekr\u00e4fta": 7874, "\u2581Bro": 7875, "\u2581DETTA": 7876, "\u2581Bur": 7877, "\u2581SP": 7878, "\u2581bilateral": 7879, "hantering": 7880, "\u2581marine": 7881, "\u25812007,": 7882, "ique": 7883, "\u2581machinery": 7884, "PC": 7885, "\u2581miles": 7886, "\u2581pleasure": 7887, "\u2581acceptable": 7888, "\u2581Herren": 7889, "\u2581foto": 7890, "gna": 7891, "mas": 7892, "\u2581uppenbart": 7893, "\u2581\u00f6gonen": 7894, "\u2581membership": 7895, "\u2581handla": 7896, "\u2581intresserad": 7897, "TH": 7898, "\u2581Note": 7899, "\u2581assigned": 7900, "\u2581Contract": 7901, "2009": 7902, "\u2581best\u00e4mmelse": 7903, "\u2581vind": 7904, "\u2581mono": 7905, "\u2581finansieras": 7906, "9,": 7907, "\u2581tr\u00f6tt": 7908, "lis": 7909, "\u2581visitors": 7910, "\u2581Thailand": 7911, "\u2581diet": 7912, "\u2581recensioner": 7913, "\u2581vary": 7914, "\u2581Bill": 7915, "\u2581Ukraine": 7916, "kommitt\u00e9n": 7917, "\u2581iv\u00e4g": 7918, "\u2581Key": 7919, "\u2581tillr\u00e4ckliga": 7920, "jor": 7921, "\u2581rese": 7922, "\u2581dear": 7923, "\u2581nere": 7924, "\u2581skett": 7925, "\u2581f\u00e5nga": 7926, "\u2581sjukhus": 7927, "\u2581utl\u00e4ndska": 7928, "\u2581exists": 7929, "\u2581named": 7930, "\u2581Kor": 7931, "\u2581patienterna": 7932, "-18": 7933, "\u2581\u00f6de": 7934, "\u2581[5]": 7935, "ings": 7936, "\u2581konstaterar": 7937, "\u2581Breakfast": 7938, "\u2581Col": 7939, "\u2581filled": 7940, "\u2581Ag": 7941, "called": 7942, "Pro": 7943, "\u2581valet": 7944, "\u2581Mc": 7945, "eo": 7946, "\u2581Second": 7947, "\u2581stund": 7948, "\u2581Building": 7949, "\u2581intyg": 7950, "syn": 7951, "\u2581Type": 7952, "\u2581kraftigt": 7953, "\u2581Bil": 7954, "\u2581square": 7955, "\u2581avl\u00e4gsna": 7956, "\u2581adapt": 7957, "\u2581aff\u00e4rer": 7958, "\u2581leverera": 7959, "\u2581sounds": 7960, "\u2581proposes": 7961, "lys": 7962, "anda": 7963, "\u2581credits": 7964, "\u2581kostnads": 7965, "\u2581smooth": 7966, "\u2581electrical": 7967, "\u2581Egypten": 7968, "\u2581mixed": 7969, "\u2581heating": 7970, "\u2581broder": 7971, "\u2581rid": 7972, "ban": 7973, "\u2581tape": 7974, "\u2581Madrid": 7975, "\u2581Sveriges": 7976, "\u2581f\u00f6rst\u00e5else": 7977, "\u2581secondary": 7978, "\u2581hang": 7979, "\u2581shouldn": 7980, "4.": 7981, "\u2581Fan": 7982, "\u2581bibeln": 7983, "\u2581Tel": 7984, "\u2581expansion": 7985, "\u2581meningen": 7986, "\u2581awarded": 7987, "\u2581resor": 7988, "bot": 7989, "\u2581pack": 7990, "\u2581Send": 7991, "\u2581launch": 7992, "\u2581f\u00f6rklaring": 7993, "\u2581skapat": 7994, "\u2581seeking": 7995, "\u00e4tt": 7996, "\u2581stronger": 7997, "\u2581beslutat": 7998, "\u2581gl\u00f6mma": 7999, "\u2581improvements": 8000, "iserade": 8001, "\u2581possibly": 8002, "\u2581Nevertheless": 8003, "\u2581kvantiteter": 8004, "\u2581delas": 8005, "\u2581ho": 8006, "ification": 8007, "AS": 8008, "\u2581Statistik": 8009, "\u2581mistake": 8010, "\u2581margin": 8011, "\u2581Church": 8012, "\u2581extensive": 8013, "\u2581yesterday": 8014, "mid": 8015, "\u2581favorit": 8016, "RP": 8017, "\u2581feature": 8018, "\u2581hydro": 8019, "ledning": 8020, "\u25812016/": 8021, "\u2581Apartments": 8022, "\u25812006,": 8023, "\u2581f\u00f6rl\u00e4ngning": 8024, "\u2581demonstrate": 8025, "\u2581rummet": 8026, "\u2581beat": 8027, "\u2581undervisning": 8028, "\u2581galen": 8029, "\u2581aktivitet": 8030, "\u2581calm": 8031, "\u25812.5": 8032, "\u2581s\u00f6dra": 8033, "\u2581engaged": 8034, "\u2581m\u00e4rke": 8035, "\u2581multilateral": 8036, "\u2581ar": 8037, "r\u00e5det": 8038, "\u2581corporate": 8039, "ene": 8040, "\u2581accessible": 8041, "\u2581Available": 8042, "\u2581pieces": 8043, "nk": 8044, "room": 8045, "\u2581worldwide": 8046, "ble": 8047, "\u2581trees": 8048, "\u2581Microsoft": 8049, "\u2581paying": 8050, "\u2581Johannes": 8051, "\u2581skyldighet": 8052, "\u2581served": 8053, "\u2581PR": 8054, "\u2581Norwegian": 8055, "\u2581fysisk": 8056, "Ex": 8057, "\u2581F\u00f6rs\u00f6k": 8058, "\u2581Anv\u00e4ndning": 8059, "\u2581li": 8060, "n\u00e4r": 8061, "\u2581milit\u00e4ra": 8062, "tech": 8063, "\u2581grew": 8064, "\u2581vanligtvis": 8065, "regler": 8066, "\u2581ordinary": 8067, "\u2581Hungary": 8068, "\u2581buying": 8069, "\u2581byggnader": 8070, "\u2581offentligt": 8071, "\u2581Qu": 8072, "\u2581invitation": 8073, "\u2581placing": 8074, "stainstansr\u00e4tten": 8075, "-7": 8076, "lm": 8077, "\u2581hyra": 8078, "\u2581Cap": 8079, "\u2581snabba": 8080, "organisationen": 8081, "\u2581Sometimes": 8082, "\u2581Vatten": 8083, "\u2581Secretary": 8084, "\u2581Manager": 8085, "\u2581talat": 8086, "\u2581f\u00f6rbereda": 8087, "\u2581Given": 8088, "\u2581slightly": 8089, "\u2581Change": 8090, "\u2581tillg\u00e5ngen": 8091, "ulation": 8092, "\u2581breast": 8093, "\u2581brittiska": 8094, "\u2581f\u00f6rfogande": 8095, "\u2581utvidgningen": 8096, "ssel": 8097, "\u2581till\u00e4mpar": 8098, "SD": 8099, "IR": 8100, "\u2581attitude": 8101, "\u25811,5": 8102, "\u2581forced": 8103, "\u2581Dom": 8104, "\u2581140": 8105, "direkt\u00f6r": 8106, "\u2581arising": 8107, "klar": 8108, "test": 8109, "\u2581leader": 8110, "\u2581problemen": 8111, "\u2581Apartment": 8112, "\u2581genuine": 8113, "\u2581finansiera": 8114, "\u2581marked": 8115, "\u2581Flash": 8116, "\u2581hava": 8117, "\u2581republiken": 8118, "\u2581\u00e4ktenskap": 8119, "\u2581department": 8120, "\u2581Agent": 8121, "SV": 8122, "\u2581tobacco": 8123, "\u2581facing": 8124, "\u2581apart": 8125, "\u2581forever": 8126, "\u2581erbjuds": 8127, "\u2581genast": 8128, "\u2581tillhandah\u00e5lls": 8129, "2004": 8130, "\u2581olja": 8131, "point": 8132, "\u2581Gen": 8133, "\u2581Comp": 8134, "\u2581Punkt": 8135, "\u2581\u00c5h": 8136, "ull": 8137, "UL": 8138, "ries": 8139, "\u2581livs": 8140, "\u2581h\u00e5lls": 8141, "\u2581bilar": 8142, "\u2581riskerna": 8143, "\u2581utvidgning": 8144, "kol": 8145, "\u2581electric": 8146, "\u2581lugn": 8147, "\u2581klagom\u00e5l": 8148, "full": 8149, "\u2581depends": 8150, "\u258114,": 8151, "\u2581l\u00e4rande": 8152, "\u2581uppt\u00e4ckt": 8153, "\u2581planen": 8154, "\u2581ok": 8155, "\u2581V\u00e5rt": 8156, "\u2581plane": 8157, "\u2581kinds": 8158, "\u2581Spa": 8159, "EX": 8160, "\u2581temperatur": 8161, "\u2581V\u00e4": 8162, "\u2581EX": 8163, "\u2581Blue": 8164, "\u2581\u00e4lska": 8165, "\u2581college": 8166, "\u2581Travel": 8167, "\u2581v\u00e4rdepapper": 8168, "terna": 8169, "\u2581ber\u00f6r": 8170, "\u2581(12": 8171, "flu": 8172, "\u2581l\u00e4gsta": 8173, "\u2581svin": 8174, "\u2581COUNCIL": 8175, "\u2581Children": 8176, "2-": 8177, "\u2581associations": 8178, "\u2581PRO": 8179, "\u2581begr\u00e4nsas": 8180, "\u2581ACP": 8181, "\u2581fest": 8182, "\u2581welfare": 8183, "\u2581throw": 8184, "\u2581dogs": 8185, "\u2581promenad": 8186, "\u2581N\u00e5gon": 8187, "\u2581Schweiz": 8188, "\u2581dance": 8189, "sprincipen": 8190, "\u2581f\u00f6rlorar": 8191, "\u2581mitten": 8192, "\u2581\u2265": 8193, "cip": 8194, "\u2581battle": 8195, "\u2581r\u00f6stade": 8196, "h\u00f6r": 8197, "f\u00e4r": 8198, "\u2581ber\u00e4kning": 8199, "\u2581educational": 8200, "\u2581f\u00f6religger": 8201, "handah\u00e5llande": 8202, "itis": 8203, "\u2581Ray": 8204, "\u2581Pu": 8205, "\u2581specify": 8206, "sida": 8207, "\u2581doser": 8208, "\u2581Ring": 8209, "\u2581k\u00f6per": 8210, "\u2581f\u00f6rtecknas": 8211, "\u2581joy": 8212, "\u2581direkta": 8213, "\u2581Region": 8214, "\u2581kurser": 8215, "\u2581Europol": 8216, "\u2581coast": 8217, "\u2581sentence": 8218, "\u2581cooperate": 8219, "\u2581Dra": 8220, "qu": 8221, "\u2581reserve": 8222, "\u2581sova": 8223, "\u2581Log": 8224, "sbygdsutveckling": 8225, "\u2581Leave": 8226, "\u2581flowers": 8227, "lt": 8228, "\u2581OR": 8229, "\u2581Export": 8230, "\u2581documentation": 8231, "myndigheten": 8232, "\u2581gr\u00f6na": 8233, "\u2581Nick": 8234, "\u2581deltagare": 8235, "\u2581parent": 8236, "\u2581guaranteed": 8237, "\u2581intern": 8238, "\u2581180": 8239, "\u2581tredjeland": 8240, "\u2581n\u00e5r": 8241, "\u2581outstanding": 8242, "\u2581supplies": 8243, "SP": 8244, "Ma": 8245, "\u2581somewhere": 8246, "eck": 8247, "\u00e4t": 8248, "\u2581Conditions": 8249, "\u2581insats": 8250, "\u2581Baltic": 8251, "\u2581dagliga": 8252, "oz": 8253, "\u2581fantastiska": 8254, "\u2581lady": 8255, "\u2581railway": 8256, "m\u00f6": 8257, "hl": 8258, "vil": 8259, "villkor": 8260, "\u2581v\u00e4gledning": 8261, "smyndigheten": 8262, "\u2581maritime": 8263, "\u2581typen": 8264, "\u2581kursen": 8265, "\u2581medicin": 8266, "\u2581djup": 8267, "\u2581foster": 8268, "1997": 8269, "\u2581false": 8270, "\u2581tillf\u00e4llen": 8271, "\u2581tr\u00e4ffade": 8272, "lle": 8273, "\u2581acquisition": 8274, "\u2581r\u00f6da": 8275, "cl": 8276, "\u2581tested": 8277, "az": 8278, "\u2581recension": 8279, "sj\u00f6": 8280, "\u2581sammans\u00e4ttning": 8281, "\u2581Stor": 8282, "\u2581excluded": 8283, "\u2581inf\u00f6rs": 8284, "plo": 8285, "\u2581announced": 8286, "\u2581heliga": 8287, "\u2581d\u00e4rigenom": 8288, "\u2581Santa": 8289, "\u2581supervisory": 8290, "\u2581Hotels": 8291, "\u2581uppr\u00e4ttande": 8292, "\u2581confirm": 8293, "\u2581gen": 8294, "\u2581telephone": 8295, "\u2581immigration": 8296, "\u2581directives": 8297, "tis": 8298, "priset": 8299, "\u2581funny": 8300, "\u2581k\u00e4llor": 8301, "rus": 8302, "\u2581Villa": 8303, "\u2581utrikes": 8304, "\u2581ancient": 8305, "\u2581skillnaden": 8306, "filer": 8307, "\u2581imagine": 8308, "\u2581l\u00f6sningen": 8309, "\u2581godk\u00e4nna": 8310, "bord": 8311, "\u2581completion": 8312, "\u2581exclusive": 8313, "\u2581m\u00e4ngder": 8314, "\u2581ryska": 8315, "\u2581trends": 8316, "\u2581finans": 8317, "j\u00e4r": 8318, "\u2581faktor": 8319, "\u2581mag": 8320, "\u2581Joe": 8321, "\u2581restaurang": 8322, "\u2581integrerad": 8323, "tz": 8324, "\u2581(20": 8325, "\u2581balanced": 8326, "\u2581golf": 8327, "\u2581konferens": 8328, "\u2581Chris": 8329, "\u2581define": 8330, "\u2581m\u00f6jligg\u00f6r": 8331, "\u2581registrerade": 8332, "NG": 8333, "\u2581tra": 8334, "\u2581permitted": 8335, "you": 8336, "\u2581usual": 8337, "\u2581diversity": 8338, "\u2581birds": 8339, "\u2581bryta": 8340, "\u2581historical": 8341, "\u2581Project": 8342, "\u2581unable": 8343, "\u2581Ungern": 8344, "\u2581l\u00e4tta": 8345, "\u25813.3": 8346, "\u2581taste": 8347, "\u2581garanterar": 8348, "\u2581tour": 8349, "\u2581avsluta": 8350, "\u2581fulfilled": 8351, "lid": 8352, "\u2581f\u00f6rklarade": 8353, "\u2581talked": 8354, "\u25810%": 8355, "\u258106": 8356, "service": 8357, "\u2581investors": 8358, "\u2581d\u00e4ck": 8359, "\u2581rike": 8360, "\u2581Ac": 8361, "\u2581Mus": 8362, "tj\u00e4nst": 8363, "\u258113,": 8364, "\u2581r\u00e4knas": 8365, "\u2581fint": 8366, "TR": 8367, "\u2581fattas": 8368, "\u2581teach": 8369, "\u00c4R": 8370, "\u2581f\u00f6rv\u00e4rv": 8371, "\u2581l\u00e4ser": 8372, "\u20ac": 8373, "like": 8374, "\u2581inhemska": 8375, "\u2581su": 8376, "inte": 8377, "\u2581Bad": 8378, "\u2581blow": 8379, "splanen": 8380, "\u25812003,": 8381, "\u2581Kal": 8382, "l\u00e4ggning": 8383, "sur": 8384, "\u2581Roman": 8385, "ENS": 8386, "ics": 8387, "\u2581upplevelse": 8388, "Har": 8389, "\u2581memory": 8390, "ismen": 8391, "bus": 8392, "\u2581abroad": 8393, "bon": 8394, "cle": 8395, "\u2581title": 8396, "\u2581sekunder": 8397, "\u2581blommor": 8398, "\u2581chapter": 8399, "ants": 8400, "\u2581Queen": 8401, "\u2581relative": 8402, "\u2581lovely": 8403, "verket": 8404, "\u2581techniques": 8405, "v\u00e4l": 8406, "\u2581kvinnan": 8407, "\u2581leverant\u00f6r": 8408, "\u2581(14": 8409, "\u2581Order": 8410, "\u2581inslag": 8411, "\u2581fr\u00e4mjande": 8412, "\u2581f\u00f6rtj\u00e4nar": 8413, "ji": 8414, "\u2581f\u00f6rsvara": 8415, "\u2581tidpunkten": 8416, "\u2581h\u00e5llas": 8417, "\u2581offentligg\u00f6ras": 8418, "\u2581letters": 8419, "r\u00e4": 8420, "\u2581scheduled": 8421, "phy": 8422, "\u2581f\u00f6rbud": 8423, "\u2581middag": 8424, "\u2581onto": 8425, "\u2581understood": 8426, "\u2581bitch": 8427, "\u2581terminal": 8428, "\u2581d\u00f6dar": 8429, "\u2581starts": 8430, "ami": 8431, "Se": 8432, "ele": 8433, "\u2581unika": 8434, "\u2581flights": 8435, "excluding": 8436, "\u2581camera": 8437, "\u2581ink\u00f6p": 8438, "kes": 8439, "\u25812002,": 8440, "\u2581Charlie": 8441, "\u2581prelimin\u00e4ra": 8442, "\u2581expenses": 8443, "\u2581resultera": 8444, "\u2581Love": 8445, "wood": 8446, "gr": 8447, "\u2581befogenhet": 8448, "\u25814.3": 8449, "\u2581Mu": 8450, "\u2581sommar": 8451, "\u2581yrkesutbildning": 8452, "\u2581l\u00e4n": 8453, "\u2581Updated": 8454, "\u2581Budapest": 8455, "f\u00f6retaget": 8456, "\u2581fo": 8457, "\u2581lovar": 8458, "ano": 8459, "\u2581brukade": 8460, "\u2581excessive": 8461, "\u2581withdrawal": 8462, "\u2581\u00c3": 8463, "ote": 8464, "\u2581thoughts": 8465, "/6": 8466, "\u2581kust": 8467, "\u2581m\u00e5naden": 8468, "\u2581tea": 8469, "\u2581ter": 8470, "sized": 8471, "\u2581Staff": 8472, "isera": 8473, "dor": 8474, "\u2581r\u00e4kning": 8475, "\u2581lagts": 8476, "\u2581t\u00e4cker": 8477, "\u2581uppf\u00f6ljning": 8478, "\u2581Ol": 8479, "lov": 8480, "\u2581bred": 8481, "f\u00f6r\u00e4ndringar": 8482, "gh": 8483, "beskrivning": 8484, "\u2581comparable": 8485, "\u2581\u00e4lskling": 8486, "\u2581v\u00e4lkomna": 8487, "\u2581Fine": 8488, "\u2581m\u00f6jligheterna": 8489, "\u2581satellite": 8490, "\u2581liquid": 8491, "\u2581klassificering": 8492, "\u2581skickar": 8493, "\u2581uppdaterad": 8494, "OP": 8495, "\u2581Technical": 8496, "\u2581acceptera": 8497, "law": 8498, "\u2581f\u00f6rdrag": 8499, "win": 8500, "\u2581m\u00e5naderna": 8501, "\u2581ljuset": 8502, "\u2581Latest": 8503, "ona": 8504, "niv\u00e5n": 8505, "\u2581kundrecensioner": 8506, "\u2581sprida": 8507, "\u2581switch": 8508, "Le": 8509, "\u2581financed": 8510, "\u2581obe": 8511, "\u00f3": 8512, "\u2581MA": 8513, "\u2581apartments": 8514, "\u2581ver": 8515, "\u2581medf\u00f6ra": 8516, "ida": 8517, "\u2581f\u00f6rbeh\u00e5ll": 8518, "\u2581pratade": 8519, "\u2581perfectly": 8520, "\u2581sanning": 8521, "\u2581kundbetyg": 8522, "\u2581OECD": 8523, "\u2581Sex": 8524, "\u2581merely": 8525, "\u2581fett": 8526, "\u2581skickade": 8527, "\u2581Got": 8528, "\u2581autumn": 8529, "\u2581Non": 8530, "\u2581spelade": 8531, "\u2581v\u00e4gar": 8532, "\u2581marginal": 8533, "\u2581household": 8534, "\u2581Bureau": 8535, "\u2581MED": 8536, "RC": 8537, "\u2581D\u00e4refter": 8538, "\u2581demonstration": 8539, "\u2581beklagar": 8540, "\u2581Location": 8541, "\u2581Ban": 8542, "\u2581rapporterats": 8543, "\u2581f\u00f6ljt": 8544, "\u2581DECISION": 8545, "\u2581aspect": 8546, "ition": 8547, "sprojekt": 8548, "\u2581sal": 8549, "And": 8550, "f\u00f6rh\u00e5llanden": 8551, "\u2581studied": 8552, "\u2581inflation": 8553, "\u2581slakt": 8554, "mel": 8555, "\u2581osv": 8556, "\u2581Allm\u00e4nna": 8557, "\u2581sn\u00e4lla": 8558, "\u2581uttrycka": 8559, "OT": 8560, "\u2581Cam": 8561, "\u2581scared": 8562, "\u2581camp": 8563, "omi": 8564, "\u2581Eurostat": 8565, "\u2581s\u00f6nder": 8566, "\u2581engines": 8567, "enheter": 8568, "\u2581gu": 8569, "leg": 8570, "FC": 8571, "\u2581f\u00f6rs\u00f6kt": 8572, "\u2581Ministers": 8573, "position": 8574, "\u2581Switzerland": 8575, "\u2581movements": 8576, "\u2581fokusera": 8577, "\u2581advertising": 8578, "\u2581conversion": 8579, "\u2581Internal": 8580, "\u2581allra": 8581, "\u2581Johan": 8582, "\u2581takt": 8583, "\u2581composition": 8584, "\u2581st\u00e4lls": 8585, "\u2581ran": 8586, "\u2581ob": 8587, "\u2581kyl": 8588, "\u2581tjej": 8589, "ral": 8590, "\u2581evigt": 8591, "\u2581fr\u00e5gorna": 8592, "\u2581Pool": 8593, "\u2581s\u00f6ner": 8594, "\u2581n\u00e4rvaro": 8595, "\u2581n\u00f6jd": 8596, "\u2581remained": 8597, "\u2581avsev\u00e4rt": 8598, "PS": 8599, "ified": 8600, "studier": 8601, "\u2581vetenskap": 8602, "\u2581hath": 8603, "\u2581tj\u00e4nstem\u00e4n": 8604, "\u2581Bri": 8605, "\u2581granska": 8606, "\u2581tr\u00e4ffas": 8607, "\u2581sur": 8608, "\u2581Annexes": 8609, "\u2581Huvud": 8610, "\u2581affairs": 8611, "\u2581indication": 8612, "\u25812016,": 8613, "\u2581DVD": 8614, "\u2581holy": 8615, "\u2581Language": 8616, "\u2581continuous": 8617, "\u2581Milj\u00f6": 8618, "\u2581karri\u00e4r": 8619, "\u2581kn\u00e4": 8620, "\u2581AN": 8621, "\u2581d\u00e4remot": 8622, "\u2581fallen": 8623, "\u2581Boka": 8624, "\u2581tillbeh\u00f6r": 8625, "\u2581Precis": 8626, "\u2581k\u00f6pte": 8627, "\u2581plastic": 8628, "\u2581f\u00f6rst\u00e5s": 8629, "field": 8630, "\u2581depend": 8631, ":30": 8632, "\u2581b\u00e5t": 8633, "\u2581godk\u00e4nnandet": 8634, "rest": 8635, "\u2581regionerna": 8636, "\u2581faster": 8637, "\u25814-": 8638, "\u2581sake": 8639, "\u2581innovativa": 8640, "\u2581f\u00f6rlust": 8641, "\u2581utg\u00e5ngen": 8642, "\u2581abuse": 8643, "\u2581inr\u00e4ttandet": 8644, "\u2581boost": 8645, "\u2581h\u00e5llare": 8646, "\u2581inser": 8647, "\u2581fr\u00e4mjar": 8648, "\u2581surprise": 8649, "\u2581strongly": 8650, "\u2581\u00e4ntligen": 8651, "\u2581skogs": 8652, "v\u00e4rd": 8653, "\u2581f\u00f6renkla": 8654, "\u25811970": 8655, "\u2581occasion": 8656, "\u25810,5": 8657, "\u2581Vanliga": 8658, "\u2581gifta": 8659, "\u2581urgent": 8660, "\u2581protecting": 8661, "\u2581Inc": 8662, "\u2581kommersiella": 8663, "\u2581inledande": 8664, "\u2581Arbets": 8665, "\u2581exceptional": 8666, "\u2581orden": 8667, "\u2581v\u00e4rt": 8668, "\u2581automatic": 8669, "f\u00f6rvaltning": 8670, "instrument": 8671, "\u2581\u00e4kta": 8672, "\u2581dates": 8673, "\u2581ended": 8674, "\u2581stands": 8675, "\u2581Apple": 8676, "\u2581skyddar": 8677, "ction": 8678, "exkl": 8679, "\u2581uttalande": 8680, "\u2581planerar": 8681, "\u2581rain": 8682, "\u2581installed": 8683, "\u2581suppliers": 8684, "start": 8685, "\u2581Sin": 8686, "ille": 8687, "\u2581brett": 8688, "\u2581beloppet": 8689, "\u2581Gas": 8690, "2008": 8691, "\u2581feelings": 8692, "EA": 8693, "\u2581scene": 8694, "\u2581dedicated": 8695, "\u2581favor": 8696, "adrest": 8697, "\u2581thinks": 8698, "\u2581alia": 8699, "\u2581Cl": 8700, "\u2581acquired": 8701, "Bo": 8702, "\u2581k\u00e4ra": 8703, "\u2581bottle": 8704, "\u2581Tim": 8705, "\u2581f\u00f6r\u00e4ndras": 8706, "\u2581s\u00e4ljer": 8707, "erings": 8708, "\u2581Uppdaterad": 8709, "\u2581Within": 8710, "\u2581numerous": 8711, "8)": 8712, "\u2581offices": 8713, "\u2581Rural": 8714, "Con": 8715, "ole": 8716, "\u2581focused": 8717, "\u2581Dag": 8718, "\u2581client": 8719, "\u2581historien": 8720, "\u2581measurement": 8721, "sia": 8722, "\u2581com": 8723, "\u2581Investment": 8724, "\u2581Che": 8725, "\u2581R\u00e4tt": 8726, "\u2581Shut": 8727, "\u2581division": 8728, "\u2581jul": 8729, "\u2581messages": 8730, "roll": 8731, "zon": 8732, "\u2581Click": 8733, "\u2581sl\u00e4ppa": 8734, "that": 8735, "\u2581begr\u00e4nsat": 8736, "\u2581texts": 8737, "\u2581concentrations": 8738, "rande": 8739, "\u2581emphasis": 8740, "\u2581sufficiently": 8741, "\u2581f\u00f6rb\u00e4ttras": 8742, "\u2581himlen": 8743, "\u2581kontakter": 8744, "\u2581Fast": 8745, "\u2581album": 8746, "\u2581considering": 8747, "sha": 8748, "\u2581\u00f6verv\u00e4ga": 8749, "\u2581wifi": 8750, "\u2581cart": 8751, "sarbete": 8752, "\u2581barriers": 8753, "\u2581h\u00e4nderna": 8754, "\u2581K\u00f6r": 8755, "\u2581obviously": 8756, "\u2581si": 8757, "...?": 8758, "mun": 8759, "ila": 8760, "CFSP": 8761, "visa": 8762, "\u2581tired": 8763, "\u2581push": 8764, "\u2581uppskattar": 8765, "1996": 8766, "\u2581bristande": 8767, "\u2581infected": 8768, "\u2581l\u00e4rt": 8769, "\u2581killing": 8770, "\u2581h\u00e5rd": 8771, "bud": 8772, "pet": 8773, "\u2581befolkning": 8774, "\u2581leverant\u00f6rer": 8775, "\u2581l\u00e4ggs": 8776, "\u2581deficit": 8777, "\u2581exclusion": 8778, "\u2581indirekt": 8779, "fr\u00e5gan": 8780, "\u2581Pal": 8781, "\u2581rapidly": 8782, "\u2581FAQ": 8783, "vu": 8784, "\u2581Charter": 8785, "\u2581Ber": 8786, "UM": 8787, "\u2581um": 8788, "\u2581Close": 8789, "\u2581removal": 8790, "\u2581grown": 8791, "\u2581presents": 8792, "\u2581betalningar": 8793, "\u2581struggle": 8794, "\u2581destroyed": 8795, "\u2581varm": 8796, "\u2581(5": 8797, "\u2581Spring": 8798, "\u2581attempt": 8799, "\u2581minskat": 8800, "\u2581taught": 8801, "kop": 8802, "\u2581provning": 8803, "kning": 8804, "\u2581160": 8805, "oid": 8806, "\u2581anv\u00e4ndar": 8807, "\u2581maintaining": 8808, "\u2581lots": 8809, "\u2581Cy": 8810, "\u2581f\u00f6rst\u00e4rka": 8811, "\u2581Four": 8812, "\u2581regelverk": 8813, "\u2581Oral": 8814, "\u2581pure": 8815, "exe": 8816, "\u2581mini": 8817, "\u25813.5": 8818, "\u2581effektivare": 8819, "\u2581f\u00f6rlorat": 8820, "ssa": 8821, "\u2581ratings": 8822, "oma": 8823, "\u2581ovann\u00e4mnda": 8824, "(6)": 8825, "landet": 8826, "\u2581respektera": 8827, "\u2581gud": 8828, "\u2581Eastern": 8829, "\u2581fail": 8830, "\u2581dagarna": 8831, "\u2581contents": 8832, "\u2581f\u00e4rdig": 8833, "\u2581till\u00e4mpligt": 8834, "\u2581colleagues": 8835, "\u2581fiscal": 8836, "\u2581Access": 8837, "arm": 8838, "\u2581uppg\u00e5r": 8839, "\u2581CB": 8840, "kat": 8841, "\u2581b\u00f6cker": 8842, "\u2581(18": 8843, "\u2581claimed": 8844, "\u2581harmonised": 8845, "\u2581involves": 8846, "\u2581fot": 8847, "Pa": 8848, "\u2581consent": 8849, "\u258105": 8850, "\u2581aktie": 8851, "ement": 8852, "\u2581F\u00f6rordning": 8853, "\u2581fader": 8854, "\u2581neck": 8855, "\u2581Reference": 8856, "\u2581sought": 8857, "nr": 8858, "\u2581vistelse": 8859, "\u2581revisionsr\u00e4tten": 8860, "\u2581Ltd": 8861, "\u2581utf\u00e4rda": 8862, "\u2581Sta": 8863, "\u2581kemiska": 8864, "\u2581believed": 8865, "\u2581sheep": 8866, "\u2581strange": 8867, "\u2581naturligt": 8868, "\u2581vaccination": 8869, "zy": 8870, "\u2581Charles": 8871, "\u2581constitutes": 8872, "LA": 8873, "\u2581Say": 8874, "SS": 8875, "\u2581Flyg": 8876, "\u2581column": 8877, "ria": 8878, "\u2581godk\u00e4nnas": 8879, "\u2581kilometer": 8880, "\u2581Utf\u00e4rda": 8881, "\u2581utg\u00e5ng": 8882, "center": 8883, "\u2581bone": 8884, "\").": 8885, "\u2581personlig": 8886, "\u2581rimlig": 8887, "\u2581medveten": 8888, "\u2581definitely": 8889, "\u2581Gothenburg": 8890, "\u2581fastst\u00e4ller": 8891, "\u2581busy": 8892, "\u2581individuella": 8893, "\u2581n\u00e5tt": 8894, "\u2581difficulty": 8895, "\u2581femte": 8896, "\u2581h\u00e5llet": 8897, "\u2581sy": 8898, "\u2581mod": 8899, "iti": 8900, "\u2581medvetna": 8901, "\u2581wedding": 8902, "If": 8903, "nyheter": 8904, "\u2581Babylon": 8905, "\u2581valuable": 8906, "\u2581conclude": 8907, "\u2581meddelanden": 8908, "\u2581m\u00f6jligg\u00f6ra": 8909, "\u2581marknaderna": 8910, "\u2581sk\u00e4len": 8911, "bruk": 8912, "\u2581f\u00c3": 8913, "\u2581Tillverkning": 8914, "g\u00e5rd": 8915, "\u2581godk\u00e4nt": 8916, "LY": 8917, "\u2581anv\u00e4ndes": 8918, "\u2581finansieringen": 8919, "\u2581harmonisation": 8920, "\u2581inspiration": 8921, "\u2581pin": 8922, "\u2581AUTHORISATION": 8923, "\u2581song": 8924, "\u2581skickas": 8925, "\u2581resource": 8926, "\u2581stads": 8927, "s\u00f6k": 8928, "\u2581r\u00f6d": 8929, "\u2581Typ": 8930, "\u2581djupt": 8931, "\u2581watching": 8932, "\u2581alternativa": 8933, "\u2581Professor": 8934, "\u2581Dutch": 8935, "\u2581strand": 8936, "ipp": 8937, "7)": 8938, "\u2581hatar": 8939, "\u258124.6.201": 8940, "\u2581bevisa": 8941, "\u2581k\u00e4lla": 8942, "\u2581Executive": 8943, "\u2581lyssnar": 8944, "\u2581derived": 8945, "virus": 8946, "\u2581beneficiary": 8947, "\u2581yttersta": 8948, "/01": 8949, "\u2581offentligg\u00f6rs": 8950, "\u2581togs": 8951, "\u2581menu": 8952, "\u2581leaflet": 8953, "\u2581finansiell": 8954, "\u2581erk\u00e4nna": 8955, "\u2581actors": 8956, "\u2581sammanlagda": 8957, "\u2581lyckats": 8958, "\u2581clients": 8959, "\u2581Brazil": 8960, "\u2581h\u00f6ja": 8961, "\u2581Jacob": 8962, "ump": 8963, "vy": 8964, "\u2581Foto": 8965, "\u2581Klicka": 8966, "\u2581Bond": 8967, "\u2581needle": 8968, "\u2581Pakistan": 8969, "cil": 8970, "\u2581Ren": 8971, "\u2581weird": 8972, "\u2581Argentina": 8973, "\u2581tabletter": 8974, "\u2581empty": 8975, "\u2581gradvis": 8976, "\u2581samples": 8977, "\u2581drinking": 8978, "\u2581ansluta": 8979, "\u2581programming": 8980, "\u2581\u00c5ter": 8981, "\u25817.": 8982, "\u2581f\u00e4rger": 8983, "\u2581(4": 8984, "\u2581beh\u00f6rig": 8985, "nge": 8986, "\u2581prescribed": 8987, "\u00e2": 8988, "\u2581millions": 8989, "\u2581hat": 8990, "\u2581investera": 8991, "nie": 8992, "\u2581Direct": 8993, "kontroller": 8994, "\u2581utbud": 8995, "head": 8996, "\u2581regn": 8997, "\u2581destruction": 8998, "\u2581baseras": 8999, "\u2581Wa": 9000, "\u2581trevligt": 9001, "\u2581utnyttjande": 9002, "\u2581(13": 9003, "\u2581uppmanade": 9004, "\u2581uppdatera": 9005, "\u2581regeringar": 9006, "\u2581Jews": 9007, "\u2581exposed": 9008, "sys": 9009, "\u25811.4": 9010, "\u2581Whatever": 9011, "\u2581yta": 9012, "\u2581religi\u00f6sa": 9013, "\u2581f\u00f6rv\u00e4ntade": 9014, "\u2581terrible": 9015, "\u2581trafficking": 9016, "\u2581tr\u00e4nings": 9017, "\u2581exciting": 9018, "nt": 9019, "tas": 9020, "vetenskap": 9021, "\u2581vial": 9022, "\u2581definitioner": 9023, "\u2581hypo": 9024, "\u2581pursue": 9025, "glas": 9026, "spr\u00e5k": 9027, "statliga": 9028, "ama": 9029, "\u2581Richard": 9030, "\u2581bearing": 9031, "\u2581hj\u00e4rt": 9032, "resa": 9033, "\u2581observation": 9034, "samt": 9035, "\u2581begr\u00e4nsning": 9036, "\u2581pattern": 9037, "\u2581savings": 9038, "\u2581\u00b1": 9039, "\u2581witness": 9040, "\u2581flying": 9041, "\u2581theme": 9042, "\u2581GODK\u00c4NNANDE": 9043, "\u2581judge": 9044, "\u2581laboratory": 9045, "\u2581nobody": 9046, "itz": 9047, "\u2581Ham": 9048, "\u2581Subject": 9049, "\u2581ikv\u00e4ll": 9050, "\u2581Malm\u00f6": 9051, "\u2581samlar": 9052, "\u2581inr\u00e4ttande": 9053, "\u2581komplettera": 9054, "\u2581visible": 9055, "\u00e4kt": 9056, "\u2581killar": 9057, "\u2581stages": 9058, "\u2581turist": 9059, "\u2581blandning": 9060, "\u2581provar": 9061, "\u2581anpassas": 9062, "\u2581f\u00f6rmodligen": 9063, "\u2581wishes": 9064, "\u00bb": 9065, "\u2581metres": 9066, "\u2581str\u00f6m": 9067, "\u2581eating": 9068, "lus": 9069, "\u2581pump": 9070, "\u2581syringe": 9071, "\u2581errors": 9072, "\u2581punk": 9073, "\u2581genomf\u00f6r": 9074, "\u2581museum": 9075, "\u2581\u00f6vre": 9076, "\u2581grants": 9077, "\u2581nationellt": 9078, "DI": 9079, "\u2581f\u00f6reslog": 9080, "xa": 9081, "\u2581syssels\u00e4ttnings": 9082, "ale": 9083, "\u2581700": 9084, "\u2581doors": 9085, "\u2581objects": 9086, "\u2581dokumentation": 9087, "DS": 9088, "\u2581kropps": 9089, "\u2581atmosphere": 9090, "\u2581Los": 9091, "\u2581Besides": 9092, "\u2581houses": 9093, "\u258110%": 9094, "\u2581productivity": 9095, "\u2581teachers": 9096, "\u2581independence": 9097, "\u2581mo": 9098, "\u2581tyder": 9099, "py": 9100, "\u2581flesh": 9101, "\u2581reaktioner": 9102, "\u2581Fisheries": 9103, "\u2581presenteras": 9104, "\u2581hundratals": 9105, "\u2581f\u00f6rh\u00e5llandet": 9106, "\u2581lying": 9107, "mmer": 9108, "\u2581tomt": 9109, "\u2581incurred": 9110, "\u2581dr\u00f6m": 9111, "\u25812001,": 9112, "\u2581inriktning": 9113, "\u2581v\u00e4xer": 9114, "\u2581h\u00e5l": 9115, "8%": 9116, "\u2581dialogen": 9117, "publ": 9118, "\u2581euroomr\u00e5det": 9119, "\u2581flygplatsen": 9120, "\u2581alarm": 9121, "\u2581rakt": 9122, "sprogrammet": 9123, "\u2581Chamber": 9124, "baserad": 9125, "\u2581passagerare": 9126, "\u2581Smart": 9127, "\u2581praktiskt": 9128, "\u2581Alex": 9129, "\u2581Danish": 9130, "\u2581skydds": 9131, "ute": 9132, "\u2581weak": 9133, "\u2581tank": 9134, "smetoder": 9135, "\u2581flygplan": 9136, "\u2581tolkning": 9137, "\u2581z": 9138, "\u2581KN": 9139, "\u2581List": 9140, "\u2581obvious": 9141, "\u00e5l": 9142, "\u2581Referenc": 9143, "\u2581f\u00f6rsiktig": 9144, "ric": 9145, "\u2581Simon": 9146, "\u2581Eli": 9147, "ward": 9148, "\u2581Gemensamma": 9149, "\u2581Kristi": 9150, "hor": 9151, "\u25812019.": 9152, "/12": 9153, "\u2581varorna": 9154, "\u2581F\u00f6rslaget": 9155, "\u2581arv": 9156, "bildning": 9157, "publikation": 9158, "\u2581Ask": 9159, "\u2581styrelsen": 9160, "\u2581Ly": 9161, "\u2581[4]": 9162, "\u2581bostads": 9163, "tum": 9164, "\u2581f\u00f6rsvars": 9165, "\u2581menade": 9166, "\u00e4ra": 9167, "\u2581d\u00e5liga": 9168, "\u2581styra": 9169, "lek": 9170, "\u2581Sydafrika": 9171, "\u2581Game": 9172, "\u2581Eco": 9173, "\u2581pl\u00f6tsligt": 9174, "\u2581f\u00f6rordningar": 9175, "\u2581l\u00f6ne": 9176, "\u2581affecting": 9177, "\u2581djuren": 9178, "\u2581n\u00e4rings": 9179, "\u2581obstacles": 9180, "\u2581Titan": 9181, "\u2581k\u00e4r": 9182, "\u2581moms": 9183, "\u2581humanitarian": 9184, "\u2581m\u00f6nster": 9185, "\u2581Budget": 9186, "\u2581checked": 9187, "\u2581sn\u00f6": 9188, "\u2581organizations": 9189, "\u2581inse": 9190, "ency": 9191, "\u2581weren": 9192, "\u2581Working": 9193, "\u2581\u203a": 9194, "\u2581spending": 9195, "\u2581tablet": 9196, "efter": 9197, "\u2581filer": 9198, "anti": 9199, "\u2581appointment": 9200, "\u25815-": 9201, "\u2581V\u00e4lkommen": 9202, "stick": 9203, "\u2581Info": 9204, "lie": 9205, "\u2581deposit": 9206, "\u2581f\u00f6rluster": 9207, "skatt": 9208, "\u2581pregnancy": 9209, "\u2581bredd": 9210, "cess": 9211, "\u2581antagande": 9212, "\u2581Internationella": 9213, "\u2581impose": 9214, "\u2581orolig": 9215, "\u2581gross": 9216, "\u25811998.": 9217, "\u2581army": 9218, "\u2581stimulera": 9219, "\u2581adopting": 9220, "\u2581allting": 9221, "\u2581solen": 9222, "andra": 9223, "\u2581kravet": 9224, "\u2581Senast": 9225, "\u2581consult": 9226, "\u2581utvecklar": 9227, "-08": 9228, "\u2581impairment": 9229, "\u2581producing": 9230, "l\u00e5t": 9231, "\u2581r\u00e5dgivande": 9232, "PO": 9233, "\u2581beds": 9234, "\u2581charged": 9235, "\u2581N\u00e5n": 9236, "\u2581weekend": 9237, "\u2581monitored": 9238, "\u2581vitt": 9239, "war": 9240, "\u2581refunds": 9241, "\u2581norra": 9242, "\u2581indent": 9243, "\u2581LED": 9244, "\u2581institut": 9245, "\u2581skrivelse": 9246, "\u2581cutting": 9247, "\u2581textile": 9248, "fast": 9249, "\u2581smoke": 9250, "\u2581insyn": 9251, "\u2581omr\u00f6stning": 9252, "\u2581strider": 9253, "\u2581l\u00e5ngsiktiga": 9254, "\u2581accidents": 9255, "\u2581apparater": 9256, "gal": 9257, "st\u00e4llning": 9258, "s\u00f6kningsperioden": 9259, "\u2581parallel": 9260, "\u2581kvalitets": 9261, "\u2581inr\u00e4ttas": 9262, "matic": 9263, "s\u00e4tter": 9264, "\u2581bek\u00e4mpning": 9265, "\u2581courts": 9266, "\u2581skede": 9267, "\u2581v\u00e4xa": 9268, "l\u00e4nd": 9269, "stiden": 9270, "\u2581asyl": 9271, "\u2581identifiering": 9272, "\u2581samlade": 9273, "32/": 9274, "\u2581dumping": 9275, "wide": 9276, "\u2581fylla": 9277, "\u2581jo": 9278, "\u2581l\u00e4rde": 9279, "hen": 9280, "lista": 9281, "\u2581detalj": 9282, "\u2581svarta": 9283, "6.": 9284, "\u2581asset": 9285, "brott": 9286, "\u25815.2": 9287, "\u2581bekr\u00e4ftar": 9288, "\u2581submission": 9289, "\u2581coordinated": 9290, "\u2581sn\u00e4ll": 9291, "\u2581constant": 9292, "\u2581uttryckligen": 9293, "\u2581f\u00f6rbli": 9294, "\u2581consisting": 9295, "\u2581sm": 9296, "\u2581initiated": 9297, "\u2581Auditors": 9298, "\u2581Joseph": 9299, "\u2581grand": 9300, "\u2581grundar": 9301, "\u2581belong": 9302, "\u2581andelen": 9303, "\u2581mankind": 9304, "\u2581advokat": 9305, "\u2581MS": 9306, "\u2581Vol": 9307, "\u2581contacts": 9308, "\u2581experiment": 9309, "\u2581utg\u00e5": 9310, "\u2581tusentals": 9311, "miss": 9312, "\u2581hj\u00e4lpte": 9313, "Portugu\u00eas": 9314, "\u2581Ange": 9315, "\u2581ri": 9316, "minister": 9317, "\u25816.1": 9318, "fu": 9319, "\u2581ig\u00e5r": 9320, "200": 9321, "\u2581fantastisk": 9322, "\u2581R\u00f6r": 9323, "\u2581beta": 9324, "\u2581ordningen": 9325, "tr\u00e4d": 9326, "f\u00f6rfarandet": 9327, "\u2581minut": 9328, "\u2581motst\u00e5nd": 9329, "\u2581producera": 9330, "\u2581worried": 9331, "\u2581samlas": 9332, "\u2581oftast": 9333, "\u2581presentera": 9334, "\u2581Mel": 9335, "\u2581dealt": 9336, "\u2581Ce": 9337, "\u2581Weather": 9338, "\u2581beskattning": 9339, "\u2581\u00e5ldern": 9340, "\u2581producent": 9341, "\u2581expiry": 9342, "krav": 9343, "\u2581encouraging": 9344, "\u2581utsikt": 9345, "trans": 9346, "\u2581managing": 9347, "3.1": 9348, "\u2581notably": 9349, "\u2581promised": 9350, "nat": 9351, "level": 9352, "\u2581talan": 9353, "sanl\u00e4ggningar": 9354, "\u2581br\u00f6d": 9355, "\u2581permits": 9356, "\u2581@": 9357, "\u2581Risk": 9358, "\u2581conservation": 9359, "\u2581mon": 9360, "\u2581Josef": 9361, "\u2581utredning": 9362, "ati": 9363, "\u2581movie": 9364, "\u2581Reading": 9365, "\u2581Kungsleden": 9366, "\u2581mal": 9367, "jer": 9368, "SL": 9369, "\u2581r\u00e4kna": 9370, "\u2581Write": 9371, "\u2581Captain": 9372, "\u2581Senaste": 9373, "\u2581regulated": 9374, "\u2581f\u00f6rblir": 9375, "\u2581kammaren": 9376, "\u2581v\u00e4der": 9377, "ido": 9378, "\u2581jordbrukare": 9379, "-30": 9380, "CE": 9381, "],": 9382, "\u2581l\u00f6per": 9383, "\u2581sj\u00e4tte": 9384, "\u2581eggs": 9385, "\u2581grav": 9386, "Deutsch": 9387, "\u2581Dina": 9388, ".5": 9389, "\u2581Tyv\u00e4rr": 9390, "RS": 9391, "\u2581discover": 9392, "stig": 9393, "\u2581Hy": 9394, "\u2581\u00e5terigen": 9395, "card": 9396, "\u2581cable": 9397, "-16": 9398, "\u2581berg": 9399, "\u2581club": 9400, "\u2581proceed": 9401, "rie": 9402, "\u2581fe": 9403, "\u2581diskussioner": 9404, "ew": 9405, "\u00c3": 9406, "iro": 9407, "\u2581Bas": 9408, "\u2581enhetlig": 9409, "\u2581Australia": 9410, "\u2581Partnership": 9411, "ison": 9412, "\u2581uppst\u00e5": 9413, "\u2581bid": 9414, "\u2581Chrome": 9415, "\u2581f\u00f6rst\u00f6ra": 9416, "\u2581heads": 9417, "\u2581Bel": 9418, "\u2581v\u00e4rsta": 9419, "\u2581CEO": 9420, "RIS": 9421, "cu": 9422, "\u2581godk\u00e4nner": 9423, "\u2581install": 9424, "\u258120%": 9425, "core": 9426, "\u2581FBI": 9427, "\u2581viktigare": 9428, "week": 9429, "\u2581Consequently": 9430, "\u2581Never": 9431, "\u2581mynt": 9432, "\u2581Civil": 9433, "\u2581lyckades": 9434, "\u2581tillv\u00e4xten": 9435, "\u2581Psalm": 9436, "\u2581leta": 9437, "\u2581Flera": 9438, "\u2581verkligheten": 9439, "\u2581br\u00f6st": 9440, "pot": 9441, "\u2581Cup": 9442, "\u2581Despite": 9443, "\u2581sticka": 9444, "\u2581ordf\u00f6randeskap": 9445, "\u25812009/": 9446, "\u2581Radio": 9447, "\u2581~": 9448, "\u2581Dafa": 9449, "\u2581encouraged": 9450, "j\u00e4m": 9451, "\u2581fulla": 9452, "\u2581utvecklade": 9453, ".12.": 9454, "\u2581trevlig": 9455, "\u2581Patients": 9456, "\u2581fastst\u00e4llda": 9457, "\u2581fond": 9458, "ionen": 9459, "chen": 9460, "\u2581solve": 9461,
[...]
